{
  "</s>": 0,
  "<unk>": 1,
  ".": 2,
  ",": 3,
  "'": 4,
  "\u2581de": 5,
  "\u2581w": 6,
  "\u2581la": 7,
  "\u2581-": 8,
  "\u2581l": 9,
  "\u2581": 10,
  "\u2581et": 11,
  "\u2581\u00e0": 12,
  "\u2581le": 13,
  "s": 14,
  "?": 15,
  "\u2581i": 16,
  "\u2581d": 17,
  "\u2581les": 18,
  "\u2581z": 19,
  "a": 20,
  "\u2581des": 21,
  "-": 22,
  "\u2581na": 23,
  "\u2581si\u0119": 24,
  "\u2581do": 25,
  "\u2581que": 26,
  "e": 27,
  "\u2581a": 28,
  "\u2581nie": 29,
  "\u2581du": 30,
  "\u2581en": 31,
  "\u2581(": 32,
  "\u2581?": 33,
  "\u2581pas": 34,
  "y": 35,
  ")": 36,
  "\u2581un": 37,
  "\u2581pour": 38,
  "est": 39,
  ":": 40,
  "\u2581Je": 41,
  "\u2581to": 42,
  "\u2581dans": 43,
  "\u2581est": 44,
  "m": 45,
  "\u2581C": 46,
  "\u2581une": 47,
  "\u2581\u017ce": 48,
  "\u2581W": 49,
  "\u2581\"": 50,
  "\u2581o": 51,
  "\u2581jest": 52,
  "!": 53,
  "\u2581ne": 54,
  "j": 55,
  "\u2581Nie": 56,
  "\u2581s": 57,
  "\u2581par": 58,
  "\u2581au": 59,
  "\u2581je": 60,
  "\u2581qui": 61,
  "\u2581vous": 62,
  "\u2581za": 63,
  "\u2581sur": 64,
  "\u2581n": 65,
  "\u2581ce": 66,
  "\u2581po": 67,
  "sz": 68,
  "u": 69,
  "i": 70,
  "\u2581qu": 71,
  "o": 72,
  "\u2581tu": 73,
  "\u2581ou": 74,
  "em": 75,
  "\u0119": 76,
  "\u2581!": 77,
  "\u2581A": 78,
  "...": 79,
  "ie": 80,
  "\u2581L": 81,
  "ai": 82,
  "\u2581Il": 83,
  ";": 84,
  "\u0107": 85,
  "\u2581od": 86,
  "\u2581c": 87,
  "\u2581co": 88,
  "\u2581To": 89,
  "il": 90,
  "\u2581lub": 91,
  "\u2581plus": 92,
  "\u2581avec": 93,
  "\u2581Tu": 94,
  "\u2581J": 95,
  "ch": 96,
  "\u2581S": 97,
  "\u0105": 98,
  "\u2581ma": 99,
  "er": 100,
  "\u2581Le": 101,
  "z": 102,
  "\u2581sont": 103,
  "my": 104,
  "go": 105,
  "un": 106,
  "\u2581La": 107,
  "\u2581aux": 108,
  "\u2581il": 109,
  "\u2581I": 110,
  "\u2581\u00e7a": 111,
  "\u2581r": 112,
  "\u2581O": 113,
  "\u2581jak": 114,
  "\u2581dla": 115,
  "\u2581\u00eatre": 116,
  "/": 117,
  "_": 118,
  "tre": 119,
  "\u2581przez": 120,
  "nie": 121,
  "en": 122,
  "\u2581nous": 123,
  "\u2581Les": 124,
  "\u2581m": 125,
  "\u2581_": 126,
  "\u2581Po": 127,
  "ce": 128,
  "BAR": 129,
  "\u2581B": 130,
  "\u2581se": 131,
  "\u2581te": 132,
  "\u2581me": 133,
  "\u2581tym": 134,
  "\u2581On": 135,
  "\u2581oraz": 136,
  "\"": 137,
  "\u2581Co": 138,
  "c": 139,
  "\u25811": 140,
  "\u2581D": 141,
  "\u2581si": 142,
  "\u015b": 143,
  "na": 144,
  "\u2581Vous": 145,
  "\u2581Z": 146,
  "t": 147,
  "\u2581j": 148,
  "\u2581fait": 149,
  "r": 150,
  "\u2581mi": 151,
  "\u2581p": 152,
  "\u2581Et": 153,
  "\u2581on": 154,
  "\u2581no": 155,
  "\u2581u": 156,
  "\u2581mnie": 157,
  "\u2581tout": 158,
  "\u2581y": 159,
  "\u2581\u00e9t\u00e9": 160,
  "\u2581/": 161,
  "\u2581s\u0105": 162,
  "\u2581tego": 163,
  "\u2581suis": 164,
  "\u2581M": 165,
  "es": 166,
  "le": 167,
  "ez": 168,
  "w": 169,
  "li": 170,
  "\u2581comme": 171,
  "une": 172,
  "cie": 173,
  "\u00f3w": 174,
  "\u2581bien": 175,
  "\u0142": 176,
  "\u2581t": 177,
  "on": 178,
  "\u2581T": 179,
  "\u2581b": 180,
  "\u2581faire": 181,
  "\u2581son": 182,
  "\u2581peut": 183,
  "mi": 184,
  "\u2581tak": 185,
  "\u2581va": 186,
  "\u2581ont": 187,
  "\u2581mais": 188,
  "\u2581r\u00e8glement": 189,
  "\u2581P": 190,
  "\u2581Commission": 191,
  "\u2581cette": 192,
  "\u25812": 193,
  "d": 194,
  "\u2581Za": 195,
  "\u2581ci": 196,
  "\u2581wy": 197,
  "\u2581mon": 198,
  "\u2581art": 199,
  "\u2581by\u0107": 200,
  "ka": 201,
  "\u2581ale": 202,
  "\u0142a": 203,
  "\u2581Na": 204,
  "\u2581ze": 205,
  "\u2581mo\u017ce": 206,
  "\u2581Tak": 207,
  "\u2581przy": 208,
  "h": 209,
  "\u2581go": 210,
  "\u2581ces": 211,
  "ci": 212,
  ".\"": 213,
  "\u2581vo": 214,
  "ne": 215,
  "\u2581Do": 216,
  "ment": 217,
  "\u2581sa": 218,
  "\u25813": 219,
  "),": 220,
  "\u2581En": 221,
  "\u2581moi": 222,
  "\u2581kt\u00f3re": 223,
  "ami": 224,
  "article": 225,
  "\u2581Si": 226,
  ").": 227,
  "\u00e9": 228,
  "ny": 229,
  "ach": 230,
  "\u2581ich": 231,
  "ej": 232,
  "ki": 233,
  "\u2581pod": 234,
  "\u2581ta": 235,
  "\u2581Mais": 236,
  "\u2581by": 237,
  "\u2581nr": 238,
  "\u2581lui": 239,
  "\u2581non": 240,
  "\u2581tylko": 241,
  "CE": 242,
  "\u2581sais": 243,
  "\u2581leur": 244,
  "\u2581prze": 245,
  "\u2581dnia": 246,
  "\u2581ust": 247,
  "\u2581jego": 248,
  "\u2581R": 249,
  "\u2581Non": 250,
  "S": 251,
  "l": 252,
  "iem": 253,
  "\u2581H": 254,
  "ant": 255,
  "\u2581membres": 256,
  "\u2581dit": 257,
  "WE": 258,
  "\u2581paragraphe": 259,
  "\u25815": 260,
  "\u2581\u00c9tats": 261,
  "\u2581Ale": 262,
  "\u2581Elle": 263,
  "g": 264,
  "in": 265,
  "k": 266,
  "UE": 267,
  "\u2581K": 268,
  "\u2581tous": 269,
  "\u25814": 270,
  "\u258110": 271,
  "A": 272,
  "\u2581veux": 273,
  "\u2581l\u00e0": 274,
  "\u2581elle": 275,
  "\u2581Jak": 276,
  "\u2581U": 277,
  "\u2581jej": 278,
  "\u2581F": 279,
  "\u2581Oui": 280,
  "\u2581Ce": 281,
  "\u2581b\u0119dzie": 282,
  "\u2581cas": 283,
  "n": 284,
  "\u2581V": 285,
  "\u2581czy": 286,
  "\u2581m\u00eame": 287,
  "\u2581doit": 288,
  "\u2581ci\u0119": 289,
  "ais": 290,
  "\u2581\u00c7a": 291,
  "C": 292,
  "nia": 293,
  "\u2581ju\u017c": 294,
  "\u2581entre": 295,
  "\u2581E": 296,
  "\u2581G": 297,
  "p": 298,
  "as": 299,
  "b": 300,
  "ni": 301,
  "\u2581europ\u00e9enne": 302,
  "\u0142o": 303,
  "ych": 304,
  "\u2581ses": 305,
  "\u2581De": 306,
  "\u2581deux": 307,
  "\u2581Ma": 308,
  "\u2581\u00e9tait": 309,
  "am": 310,
  "\u2581aussi": 311,
  "\u2581Ch": 312,
  "\u2581.": 313,
  "\u2581celu": 314,
  "la": 315,
  "Union": 316,
  "\u2581ja": 317,
  "\u2581dire": 318,
  "vous": 319,
  "\u2581toi": 320,
  "elle": 321,
  "\u2581Conseil": 322,
  "\u2581ici": 323,
  "\u2581quoi": 324,
  "\u2581Qu": 325,
  "\u2581ten": 326,
  "de": 327,
  "tu": 328,
  "\u2581N": 329,
  "\u2581peux": 330,
  "\u2581Un": 331,
  "\u2581Wy": 332,
  "\u2581aby": 333,
  "\u00eatre": 334,
  "\u2581rozporz\u0105dzenia": 335,
  "ons": 336,
  "\u2581ty": 337,
  "ait": 338,
  "U": 339,
  "\u2581zgodnie": 340,
  "\u00e9tait": 341,
  "e\u015b": 342,
  "\u2581o\u00f9": 343,
  "\u2581nale\u017cy": 344,
  "\u2581g": 345,
  "\u0142em": 346,
  "\u2581Komisji": 347,
  "\u2581sprawie": 348,
  "\u2581Ja": 349,
  "\u2581pan": 350,
  "\u2581Nous": 351,
  "\u25816": 352,
  "\u2581pays": 353,
  "moi": 354,
  "\u2581co\u015b": 355,
  "ego": 356,
  "\u2581ni\u017c": 357,
  "\u2581Czy": 358,
  "\u2581Prze": 359,
  "E": 360,
  "j\u0105": 361,
  "\u2581Ils": 362,
  "\u2581temps": 363,
  "\u0142am": 364,
  "ze": 365,
  "\u2581point": 366,
  "re": 367,
  "\u2581kt\u00f3rych": 368,
  "no": 369,
  "\u2581sous": 370,
  "\u2581ton": 371,
  "\u2581chose": 372,
  "i\u0119": 373,
  "\u2581vu": 374,
  "\u2581sobie": 375,
  "\u2581sans": 376,
  "\u2581gdy": 377,
  "\u2581tych": 378,
  "ek": 379,
  "\u2581jako": 380,
  "\u2581rien": 381,
  "\u2581avez": 382,
  "om": 383,
  "\u2581przypadku": 384,
  "\u0142e\u015b": 385,
  "je": 386,
  "\u2581by\u0142": 387,
  "\u2581mam": 388,
  "\u2581vais": 389,
  "\u2581tej": 390,
  "\u2581autres": 391,
  "\u2581Re": 392,
  "\u2581przed": 393,
  "\u2581f": 394,
  "\u2581je\u015bli": 395,
  "tr\u00e8s": 396,
  "\u2581bez": 397,
  "\u2581kt\u00f3ry": 398,
  "\u2581vie": 399,
  "\u2581Pour": 400,
  "nt": 401,
  "is": 402,
  "\u2581fois": 403,
  "\u2581by\u0142o": 404,
  "li\u015bmy": 405,
  "\u25817": 406,
  "owy": 407,
  "\u2581r\u00f3wnie\u017c": 408,
  "accord": 409,
  "or": 410,
  "\u2581pr\u00e9sent": 411,
  "\u2581tam": 412,
  "ils": 413,
  "by": 414,
  "\u00e0": 415,
  "\u2581re": 416,
  "\u2581mesures": 417,
  "d\u017a": 418,
  "\u2581march\u00e9": 419,
  "ym": 420,
  "\u2581Je\u015bli": 421,
  "\u2581ils": 422,
  "\u2581voir": 423,
  "\u2581bardzo": 424,
  "\u2581produits": 425,
  "\u2581Rady": 426,
  "\u2581ainsi": 427,
  "\u2581avant": 428,
  "\u2581bo": 429,
  "\u2581europ\u00e9en": 430,
  "\u2581te\u017c": 431,
  "\u2581es": 432,
  "\u2581quand": 433,
  "\u0144": 434,
  "\u2581nas": 435,
  "ho": 436,
  "\u2581Dans": 437,
  "\u2581Pourquoi": 438,
  "\u2581mog\u0105": 439,
  "ou": 440,
  "\u2581Par": 441,
  "\u2581Une": 442,
  "\u2581tak\u017ce": 443,
  "B": 444,
  "te": 445,
  "\u0142y": 446,
  "\u2581Przy": 447,
  "\u2581Dieu": 448,
  "\u2581juste": 449,
  "ko": 450,
  "\u2581soit": 451,
  "owi": 452,
  "\u2581\u017ceby": 453,
  "\u2581jamais": 454,
  "ette": 455,
  "\u2581chez": 456,
  "\u2581UE": 457,
  "\u2581j\u0105": 458,
  "\u2581jestem": 459,
  "\u2581apr\u00e8s": 460,
  "\u2581Jest": 461,
  "\u2581Komisja": 462,
  "\u2581leurs": 463,
  "et": 464,
  "\u2581directive": 465,
  "ra": 466,
  "\u2581avoir": 467,
  "k\u0119": 468,
  "\u015b\u0107": 469,
  "\u25818": 470,
  "\u2581encore": 471,
  "autres": 472,
  "owa": 473,
  "\u2581jour": 474,
  "\u2581peuvent": 475,
  "\u2581teraz": 476,
  "da": 477,
  "\u2581we": 478,
  "\u2581besoin": 479,
  "\u2581moins": 480,
  "owe": 481,
  "ca": 482,
  "sza": 483,
  "ku": 484,
  "an": 485,
  "\u2581bon": 486,
  "\u2581d\u00e9cision": 487,
  "\u2581\u00c0": 488,
  "\u2581Od": 489,
  "\u2581wszystkich": 490,
  "ont": 491,
  "\u2581ans": 492,
  "\u2581lat": 493,
  "\u2581Ne": 494,
  "\u2581jeste\u015b": 495,
  "\u2581Pas": 496,
  "\u258120": 497,
  "\u2581monde": 498,
  "\u2581sera": 499,
  "\u2581autre": 500,
  "\u2581Unii": 501,
  "dzie": 502,
  "mu": 503,
  "\u2581Ta": 504,
  "\u2581toujours": 505,
  "\u2581[": 506,
  ",\"": 507,
  "\u2581Mam": 508,
  "\u2581\u00eates": 509,
  "f": 510,
  "\u25811,": 511,
  "\u25811.": 512,
  "\u2581Comment": 513,
  "\u2581toute": 514,
  "\u258115": 515,
  "D": 516,
  "\u2581No": 517,
  "\u2581wszystko": 518,
  "M": 519,
  "\u2581\u00e9galement": 520,
  "ent": 521,
  "W": 522,
  "\u2581mu": 523,
  "\u2581ciebie": 524,
  "\u2581zakresie": 525,
  "\u2581roku": 526,
  "\u2581peu": 527,
  "ing": 528,
  "uje": 529,
  "\u2581pa\u0144stwa": 530,
  "\u2581roz": 531,
  "\u2581jeszcze": 532,
  "\u2581mo\u017cna": 533,
  "\u2581mg": 534,
  "\u2581avait": 535,
  "\u2581Mo\u017ce": 536,
  "\u2581conform\u00e9ment": 537,
  "\u2581\u017cycie": 538,
  "it": 539,
  "\u2581mi\u0119dzy": 540,
  "\u2581spos\u00f3b": 541,
  "\u2581in": 542,
  "\u2581Bien": 543,
  "\u258130": 544,
  "\u2581compte": 545,
  "\u25819": 546,
  "\u2581quelque": 547,
  "\u2581membre": 548,
  "\u2581odniesieniu": 549,
  "\u2581mise": 550,
  "\u2581eu": 551,
  "\u2581innych": 552,
  "]": 553,
  "\u2581...": 554,
  "2": 555,
  "\u2581donc": 556,
  "si": 557,
  "\u2581dont": 558,
  "\u2581Jeste\u015b": 559,
  "\u2581by\u0142a": 560,
  "\u2581.\"": 561,
  "\u2581base": 562,
  "P": 563,
  "\u2581wi\u0119cej": 564,
  "\u258112": 565,
  "\u017c": 566,
  "\u2581Merci": 567,
  "us": 568,
  "za": 569,
  "\u2581partie": 570,
  "\u2581mog\u0119": 571,
  "al": 572,
  "owa\u0107": 573,
  "\u2581donn\u00e9es": 574,
  "\u2581kiedy": 575,
  "\u2581toutes": 576,
  "\u2581vraiment": 577,
  "wa": 578,
  "\u2581contre": 579,
  "\u25812,": 580,
  "ar": 581,
  "\u2581Article": 582,
  "\u2581s\u00e9curit\u00e9": 583,
  "ta": 584,
  "\u2581concernant": 585,
  "\u2581dotycz\u0105ce": 586,
  "\u2581faut": 587,
  "\u2581pani": 588,
  "cz": 589,
  "\u2581dobrze": 590,
  "owych": 591,
  "\u2581Musi": 592,
  "\u2581pense": 593,
  "\u2581Que": 594,
  "\u2581travail": 595,
  "\u2581rapport": 596,
  "L": 597,
  "n\u0105": 598,
  "\u2581plan": 599,
  "\u2581fais": 600,
  "\u2581doivent": 601,
  "prawd\u0119": 602,
  "\u2581II": 603,
  "\u2581Artyku\u0142": 604,
  "\u2581pu": 605,
  "ty": 606,
  "ro": 607,
  "annexe": 608,
  "pra": 609,
  "uj\u0119": 610,
  "\u2581Jestem": 611,
  "\u2581nad": 612,
  "sta": 613,
  "\u2581ramach": 614,
  "\u2581Europejskiej": 615,
  "\u2581Alors": 616,
  "x": 617,
  "\u2581robi": 618,
  "\u2581dois": 619,
  "ur": 620,
  "lo": 621,
  "\u2581mes": 622,
  "\u2581Bo": 623,
  "\u2581syst\u00e8me": 624,
  "ol": 625,
  "\u2581&": 626,
  "\u2581maintenant": 627,
  "\u2581wi\u0119c": 628,
  "ba": 629,
  "\u2581pr\u00e9sente": 630,
  "\u2581demande": 631,
  "\u2581\u015brodk\u00f3w": 632,
  "\u2581mal": 633,
  "cy": 634,
  "\u2581notamment": 635,
  "au": 636,
  "\u2581Ou": 637,
  "\u2581przedsi\u0119biorstw": 638,
  "to": 639,
  "\u2581d\u00e9j\u00e0": 640,
  "les": 641,
  "\u2581lieu": 642,
  "\u2581Mon": 643,
  "\u2581Des": 644,
  "\u2581informations": 645,
  "\u2581prendre": 646,
  "\u2581droit": 647,
  "\u2581cadre": 648,
  "\u2581Au": 649,
  "\u2581lit": 650,
  "ia": 651,
  "\u2581pracy": 652,
  "\u2581part": 653,
  "\u2581cet": 654,
  "\u2581pomocy": 655,
  "\u2581e": 656,
  "wo": 657,
  "ut": 658,
  "\u2581Mi": 659,
  "N": 660,
  "ma": 661,
  "\u2581niveau": 662,
  "\u2581Da": 663,
  "\u2581masz": 664,
  "H": 665,
  "do": 666,
  "\u2581nic": 667,
  "bi": 668,
  "\u2581gdzie": 669,
  "\u2581personne": 670,
  "\u2581premier": 671,
  "\u258118": 672,
  "\u2581DE": 673,
  "\u2581conditions": 674,
  "\u2581parler": 675,
  "\u2581prix": 676,
  "\u2581Tout": 677,
  "\u2581mati\u00e8re": 678,
  "\u2581nam": 679,
  "\u2581services": 680,
  "\u258111": 681,
  "\u2581chaque": 682,
  "man": 683,
  "\u2581My\u015bl": 684,
  "\u2581informacji": 685,
  "\u2581nim": 686,
  "\u2581nos": 687,
  "\u2581h": 688,
  "\u2581kt\u00f3ra": 689,
  "ter": 690,
  "at": 691,
  "ry": 692,
  "ir": 693,
  "O": 694,
  "\u2581cours": 695,
  "\u2581tutaj": 696,
  "\u2581k": 697,
  "\u2581kt\u00f3rym": 698,
  "\u2581alors": 699,
  "\u015bmy": 700,
  "im": 701,
  "\u00e9tais": 702,
  "3": 703,
  "\u2581maj\u0105": 704,
  "\u2581Quoi": 705,
  "pi": 706,
  "eur": 707,
  "\u2581musi": 708,
  "\u258119": 709,
  "nych": 710,
  "\u2581jusqu": 711,
  "\u2581Prosz\u0119": 712,
  "\u2581s\u00fbr": 713,
  "\u2581pi": 714,
  "\u25812.": 715,
  "T": 716,
  "ler": 717,
  "\u2581domu": 718,
  "\u2581rzecz": 719,
  "\u2581traitement": 720,
  "di": 721,
  "\u2581nom": 722,
  "\u2581rynku": 723,
  "\u2581pendant": 724,
  "K": 725,
  "po": 726,
  "\u2581personnes": 727,
  "\u2581cz\u0142onkowskie": 728,
  "dy": 729,
  "\u2581afin": 730,
  "\u2581nawet": 731,
  "\u2581produkt\u00f3w": 732,
  "\u2581mois": 733,
  "\u2581im": 734,
  "\u2581ludzi": 735,
  "\u2581vos": 736,
  "\u2581Bon": 737,
  "\u2581dzieci": 738,
  "\u2581partir": 739,
  "\u00e9e": 740,
  "\u2581danych": 741,
  "od": 742,
  "aide": 743,
  "\u2581depuis": 744,
  "\u2581aller": 745,
  "\u2581crois": 746,
  "\u2581pa\u0144stw": 747,
  "dzi": 748,
  "\u2581Parlement": 749,
  "\u2581Dlaczego": 750,
  "\u2581trop": 751,
  "R": 752,
  "\u2581szczeg\u00f3lno\u015bci": 753,
  "\u2581dzia\u0142ania": 754,
  "G": 755,
  "st": 756,
  "\u2581czas": 757,
  "\u2581devrait": 758,
  "ton": 759,
  "os": 760,
  "\u2581dispositions": 761,
  "\u2581raison": 762,
  "\u2581dyrektywy": 763,
  "eau": 764,
  "\u2581zrobi\u0107": 765,
  "son": 766,
  "\u2581moment": 767,
  "\u2581di": 768,
  "\u258113": 769,
  "\u2581wszystkie": 770,
  "\u2581takie": 771,
  "\u2581rozporz\u0105dzenie": 772,
  "\u258114": 773,
  "\u2581porz\u0105dku": 774,
  "\u2581d\u00e9veloppement": 775,
  "\u2581ni": 776,
  "\u2581compris": 777,
  "avais": 778,
  "\u00c9tat": 779,
  "\u2581beaucoup": 780,
  "autre": 781,
  "\u2581savoir": 782,
  "\u2581Qui": 783,
  "\u2581concerne": 784,
  "\u2581jours": 785,
  "\u258117": 786,
  "\u2581podstawie": 787,
  "\u2581czasu": 788,
  "\u2581dotycz\u0105cych": 789,
  "um": 790,
  "\u2581avons": 791,
  "\u2581p\u00e9riode": 792,
  "\u017a": 793,
  "\u2581m\u00f3j": 794,
  "\u2581type": 795,
  "bra": 796,
  "\u2581Dz": 797,
  "J": 798,
  "\u2581d\u00e9": 799,
  "\u2581mort": 800,
  "el": 801,
  "\u258116": 802,
  "\u2581mia\u0142": 803,
  "\u2581gens": 804,
  "\u2581decyzji": 805,
  "\u2581pourquoi": 806,
  "\u2581trois": 807,
  "\u2581zosta\u0107": 808,
  "\u2581femme": 809,
  "\u2581politique": 810,
  "\u2581jednak": 811,
  "ga": 812,
  "\u2581\u0153uvre": 813,
  "\u2581cela": 814,
  "\u25812005": 815,
  "\u2581m\u00f3wi": 816,
  "\u2581sens": 817,
  "\u2581tant": 818,
  "\u2581str": 819,
  "\u2581O\u00f9": 820,
  "\u2581mieux": 821,
  "\u2581p\u00e8re": 822,
  "\u2581programme": 823,
  "\u2581cz\u0142onkowskich": 824,
  "gar": 825,
  "\u2581Ty": 826,
  "\u2581nich": 827,
  "\u2581veut": 828,
  "\u2581EUR": 829,
  "\u2581vue": 830,
  "ona": 831,
  "id": 832,
  "ck": 833,
  "\u2581Communaut\u00e9": 834,
  "\u2581vers": 835,
  "\u258125": 836,
  "\u2581ai": 837,
  "\u2581stosowania": 838,
  "\u2581autorit\u00e9s": 839,
  "\u25812006": 840,
  "\u2581comment": 841,
  "owego": 842,
  "\u2581mowa": 843,
  "\u25813,": 844,
  "\u2581vrai": 845,
  "\u258124": 846,
  "\u2581Ca": 847,
  "I": 848,
  "\u2581Europejskiego": 849,
  "Allez": 850,
  "\u2581contr\u00f4le": 851,
  "ation": 852,
  "\u2581Ko": 853,
  "a\u0142em": 854,
  "F": 855,
  "\u2581patients": 856,
  "\u258121": 857,
  "\u2581Dobrze": 858,
  "a\u0107": 859,
  "\u2581question": 860,
  "czy": 861,
  "\u2581powiedzie\u0107": 862,
  "\u2581chcesz": 863,
  "gi": 864,
  "\u2581os\u00f3b": 865,
  "\u2581Gdzie": 866,
  "\u2581trait\u00e9": 867,
  "\u2581chodzi": 868,
  "\u2581uwzgl\u0119dniaj\u0105c": 869,
  "\u25812004": 870,
  "\u2581enfants": 871,
  "\u2581mesure": 872,
  "\u2581Comme": 873,
  "\u2581car": 874,
  "\u2581place": 875,
  "zy": 876,
  "rai": 877,
  "ad": 878,
  "\u2581ona": 879,
  "\u2581Te": 880,
  "application": 881,
  "\u2581quelqu": 882,
  "\u2581droits": 883,
  "\u258122": 884,
  "o\u015b\u0107": 885,
  "\u2581fin": 886,
  "enia": 887,
  "\u2581Kto": 888,
  "se": 889,
  "\u2581bardziej": 890,
  "\u2581Nic": 891,
  "k\u0105": 892,
  "\u2581certains": 893,
  "ner": 894,
  "EWG": 895,
  "\u2581ceux": 896,
  "\u2581pourrait": 897,
  "\u2581b\u0119d\u0105": 898,
  "\u2581fa": 899,
  "\u2581chc\u0119": 900,
  "CEE": 901,
  "j\u0119": 902,
  "\u2581inne": 903,
  "\u258131": 904,
  "uc": 905,
  "one": 906,
  "\u2581choses": 907,
  "\u2581Jo": 908,
  "\u2581Ho": 909,
  "\u2581mamy": 910,
  "\u2581zrobi\u0142": 911,
  "szy": 912,
  "\u2581parce": 913,
  "\u2581Kiedy": 914,
  "art": 915,
  "pa": 916,
  "th": 917,
  "wie": 918,
  "\u2581grand": 919,
  "owej": 920,
  "ard": 921,
  "\u2581dis": 922,
  "\u2581Ces": 923,
  "\u2581celui": 924,
  "\u2581temat": 925,
  "\u2581mis": 926,
  "1": 927,
  "\u2581kt\u00f3rej": 928,
  "ier": 929,
  "\u2581informacje": 930,
  "ed": 931,
  "\u2581prawda": 932,
  "\u2581maison": 933,
  "\u2581kt\u00f3rzy": 934,
  "\u017ce": 935,
  "\u2581mani\u00e8re": 936,
  "\u2581Quand": 937,
  "\u25814.": 938,
  "\u2581\u00c9tat": 939,
  "\u2581mie\u0107": 940,
  "\u2581\u015brodki": 941,
  "\u2581nouveau": 942,
  "\u2581100": 943,
  "v": 944,
  "\u2581powiedzia\u0142": 945,
  "ow\u0105": 946,
  "\u2581raz": 947,
  "\u2581lors": 948,
  "\u2581ochrony": 949,
  "\u2581albo": 950,
  "\u2581pacjent\u00f3w": 951,
  "\u2581strony": 952,
  "ve": 953,
  "\u2581dzia\u0142a\u0144": 954,
  "aime": 955,
  "\u2581article": 956,
  "\u2581nombre": 957,
  "\u2581temu": 958,
  "\u2581produit": 959,
  "\u2581m\u00e8re": 960,
  "\u015bci": 961,
  "\u25813.": 962,
  "\u2581bonne": 963,
  "niu": 964,
  "10": 965,
  "\u2581kto": 966,
  "\u2581ani": 967,
  "\u2581protection": 968,
  "d\u0119": 969,
  "\u2581probl\u00e8me": 970,
  "\u2581mo\u017cesz": 971,
  "\u2581tr": 972,
  "\u2581pouvez": 973,
  "\u2581Sal": 974,
  "bo": 975,
  "ul": 976,
  "\u2581pris": 977,
  "\u2581prostu": 978,
  "hui": 979,
  "\u2581takich": 980,
  "ob": 981,
  "\u2581podczas": 982,
  "\u2581mettre": 983,
  "\u00b0": 984,
  "aient": 985,
  "\u2581niniejszego": 986,
  "\u2581petit": 987,
  "\u2581czym": 988,
  "\u2581n\u00e9cessaire": 989,
  "\u2581r\u00e8gles": 990,
  "\u2581swoje": 991,
  "\u2581reste": 992,
  "\u2581passe": 993,
  "\u2581my\u015bli": 994,
  "\u2581Y": 995,
  "\u2581secteur": 996,
  "\u2581wiele": 997,
  "ine": 998,
  "\u2581fille": 999,
  "\u2581prawa": 1000,
  "\u2581trouver": 1001,
  "\u2581Pa\u0144stwa": 1002,
  "\u2581kocha": 1003,
  "\u2581razem": 1004,
  "\u2581homme": 1005,
  "\u2581seul": 1006,
  "\u2581zwi\u0105zku": 1007,
  "\u2581cz\u0119\u015bci": 1008,
  "\u2581Ci": 1009,
  "\u2581entreprises": 1010,
  "\u2581pass\u00e9": 1011,
  "\u2581warto\u015bci": 1012,
  "ja": 1013,
  "\u2581Dzi\u0119kuj\u0119": 1014,
  "ly": 1015,
  "\u2581proc\u00e9dure": 1016,
  "\u2581us\u0142ug": 1017,
  "\u2581powinien": 1018,
  "\u2581wiesz": 1019,
  "\u2581\u00e9conomique": 1020,
  "\u2581miejsce": 1021,
  "\u2581selon": 1022,
  "\u2581serait": 1023,
  "ony": 1024,
  "\u2581possible": 1025,
  "per": 1026,
  "\u2581Dzi\u0119k": 1027,
  "ran": 1028,
  "\u2581powinny": 1029,
  "\u2581niego": 1030,
  "\u2581titre": 1031,
  "ex": 1032,
  "\u2581bezpiecze\u0144stwa": 1033,
  "wi": 1034,
  "\u258150": 1035,
  "\u2581nouvelle": 1036,
  "ver": 1037,
  "\u2581systemu": 1038,
  "co": 1039,
  "\u2581risque": 1040,
  "\u25812007": 1041,
  "\u2581by\u0142y": 1042,
  "\u2581premi\u00e8re": 1043,
  "\u2581praw": 1044,
  "\u2581chce": 1045,
  "ke": 1046,
  "wy": 1047,
  "\u2581quelques": 1048,
  "\u2581gestion": 1049,
  "\u2581da": 1050,
  "age": 1051,
  "\u2581convient": 1052,
  "\u2581miejsca": 1053,
  "\u2581taux": 1054,
  "\u2581fa\u00e7on": 1055,
  "\u2581zawsze": 1056,
  "\u2581cel\u00f3w": 1057,
  "\u2581zosta\u0142": 1058,
  "Z": 1059,
  "\u2581dni": 1060,
  "\u2581famille": 1061,
  "\u2581groupe": 1062,
  "\u2581Car": 1063,
  "acja": 1064,
  "enie": 1065,
  "\u2581sommes": 1066,
  "\u2581t\u0119": 1067,
  "\u2581nigdy": 1068,
  "\u2581production": 1069,
  "\u25812009": 1070,
  "ill": 1071,
  "raz": 1072,
  "vah": 1073,
  "\u2581Sp": 1074,
  "\u25814,": 1075,
  "\u2581kt\u00f3rego": 1076,
  "toi": 1077,
  "\u2581J\u00e9": 1078,
  "\u25812008": 1079,
  "\u2581zrobi": 1080,
  "\u258123": 1081,
  "nik": 1082,
  "\u2581rzeczy": 1083,
  "\u2581M\u00f3wi": 1084,
  "\u2581effet": 1085,
  "\u2581Mar": 1086,
  "ak": 1087,
  "\u2581Al": 1088,
  "\u2581siebie": 1089,
  "\u2581troch\u0119": 1090,
  "i\u0107": 1091,
  "\u2581poniewa\u017c": 1092,
  "\u2581twoje": 1093,
  "\u2581Se": 1094,
  "a\u0142": 1095,
  "\u015bcie": 1096,
  "\u00e9s": 1097,
  "\u2581vois": 1098,
  "\u2581exemple": 1099,
  "\u00f3j": 1100,
  "\u2581pro": 1101,
  "\u2581moje": 1102,
  "\u2581zosta\u0142y": 1103,
  "avoir": 1104,
  "\u2581tes": 1105,
  "kolwiek": 1106,
  "air": 1107,
  "\u2581was": 1108,
  "\u2581Parlamentu": 1109,
  "\u2581Mog": 1110,
  "\u2581donn\u00e9": 1111,
  "\u2581zmiany": 1112,
  "\u2581sta\u0142o": 1113,
  "\u2581parties": 1114,
  "gard": 1115,
  "\u2581tard": 1116,
  "\u2581suivant": 1117,
  "\u2581seulement": 1118,
  "\u2581dwa": 1119,
  "\u2581\u017cycia": 1120,
  "\u2581powinna": 1121,
  "\u2581dziewczyn": 1122,
  "\u25810": 1123,
  "\u2581je\u017celi": 1124,
  "\u2581activit\u00e9s": 1125,
  "par": 1126,
  "\u2581nuit": 1127,
  "\u2581za\u0142\u0105czniku": 1128,
  "\u2581ds": 1129,
  "\u2581Jeh": 1130,
  "\u2581fou": 1131,
  "\u2581service": 1132,
  "\u2581pouvoir": 1133,
  "\u258128": 1134,
  "\u2581JO": 1135,
  "\u2581kontroli": 1136,
  "\u2581Je\u017celi": 1137,
  "\u2581pkt": 1138,
  "\u2581recherche": 1139,
  "iez": 1140,
  "\u2581jeden": 1141,
  "\u2581situation": 1142,
  "\u2581ex": 1143,
  "\u2581tiers": 1144,
  "zi": 1145,
  "avez": 1146,
  "\u2581Dr": 1147,
  "\u2581transport": 1148,
  "\u2581Teraz": 1149,
  "\u2581telle": 1150,
  "\u2581poprzez": 1151,
  "tel": 1152,
  "\u2581polityki": 1153,
  "\u2581mocy": 1154,
  "\u2581soir": 1155,
  "\u2581tob\u0105": 1156,
  "\u2581Ro": 1157,
  "uj": 1158,
  "\u2581stanie": 1159,
  "\u2581ayant": 1160,
  "rait": 1161,
  "\u2581Sam": 1162,
  "\u2581\u00e9taient": 1163,
  "\u2581qualit\u00e9": 1164,
  "ska": 1165,
  "anie": 1166,
  "\u2581Ra": 1167,
  "int\u00e9r\u00eat": 1168,
  "iens": 1169,
  "\u2581Nale\u017cy": 1170,
  "\u2581valeur": 1171,
  "\u2581date": 1172,
  "\u2581vigueur": 1173,
  "\u2581produktu": 1174,
  "\u2581Musz": 1175,
  "\u2581my": 1176,
  "\u2581fils": 1177,
  "nym": 1178,
  "\u2581Pa": 1179,
  "\u2581soci\u00e9t\u00e9": 1180,
  "\u2581przepis\u00f3w": 1181,
  "\u2581mn\u0105": 1182,
  "eux": 1183,
  "isz": 1184,
  "ique": 1185,
  "\u2581oznacza": 1186,
  "\u2581wygl\u0105da": 1187,
  "\u2581Pod": 1188,
  "\u2581samo": 1189,
  "\u2581w\u0142a\u015bnie": 1190,
  "robi": 1191,
  "utilisation": 1192,
  "\u2581mer": 1193,
  "\u2581moyen": 1194,
  "nego": 1195,
  "\u2581III": 1196,
  "00": 1197,
  "sko": 1198,
  "\u258127": 1199,
  "\u2581grande": 1200,
  "\u2581mo\u017cemy": 1201,
  "pro": 1202,
  "\u2581communautaire": 1203,
  "\u2581voulez": 1204,
  "eu": 1205,
  "\u2581Roz": 1206,
  "\u2581*": 1207,
  "\u2581ob": 1208,
  "\u2581000": 1209,
  "owym": 1210,
  "\u2581rozwoju": 1211,
  "era": 1212,
  "\u2581niekt\u00f3rych": 1213,
  "\u2581Su": 1214,
  "\u2581seule": 1215,
  "\u2581d\u00e9cembre": 1216,
  "\u2581dalej": 1217,
  "\u2581b\u0119d\u0119": 1218,
  "\u2581plusieurs": 1219,
  "\u2581one": 1220,
  "\u2581Tylko": 1221,
  "\u2581relatives": 1222,
  "\u2581pana": 1223,
  "V": 1224,
  "\u2581Est": 1225,
  "\u2581Ten": 1226,
  "\u2581suite": 1227,
  "\u2581d\u00fb": 1228,
  "\u2581pomoc": 1229,
  "\u2581LA": 1230,
  "\u2581Pro": 1231,
  "rze": 1232,
  "\u258129": 1233,
  "owanie": 1234,
  "\u2581forme": 1235,
  "rz": 1236,
  "\u2581ann\u00e9es": 1237,
  "by\u015b": 1238,
  "\u2581kilka": 1239,
  "\u2581heures": 1240,
  "\u2581Wszystko": 1241,
  "apr\u00e8s": 1242,
  "lot": 1243,
  "\u2581programu": 1244,
  "\u2581d\u00e9sol\u00e9": 1245,
  "ol\u00e9": 1246,
  "\u2581uwag\u0119": 1247,
  "\u2581Bo\u017ce": 1248,
  "\u2581celle": 1249,
  "\u2581sant\u00e9": 1250,
  "\u2581prend": 1251,
  "\u2581cause": 1252,
  "\u2581prosz\u0119": 1253,
  "\u2581dane": 1254,
  "\u2581Ha": 1255,
  "k\u00f3w": 1256,
  ");": 1257,
  "\u2581porte": 1258,
  "\u2581bou": 1259,
  "\u2581trouv\u00e9": 1260,
  "que": 1261,
  "o\u015bci": 1262,
  "\u2581sam": 1263,
  "\u2581moim": 1264,
  "min": 1265,
  "\u2581kto\u015b": 1266,
  "\u2581Vo": 1267,
  "\u2581\u00e9l\u00e9ments": 1268,
  "ign": 1269,
  "kiem": 1270,
  "owania": 1271,
  "\u2581taki": 1272,
  "\u2581czego": 1273,
  "lan": 1274,
  "\u2581Ju\u017c": 1275,
  "\u2581lorsque": 1276,
  "\u2581sang": 1277,
  "\u2581Chc\u0119": 1278,
  "\u2581gra": 1279,
  "\u25812003": 1280,
  "\u2581ludzie": 1281,
  "\u2581sz": 1282,
  "\u2581aujourd": 1283,
  "\u2581dernier": 1284,
  "\u2581consid\u00e9rant": 1285,
  "mer": 1286,
  "and": 1287,
  "\u25812010": 1288,
  "\u2581devra": 1289,
  "\u2581coop\u00e9ration": 1290,
  "\u2581donner": 1291,
  "\u2581niej": 1292,
  "\u258126": 1293,
  "\u2581oui": 1294,
  "\u2581He": 1295,
  "du": 1296,
  "j\u0105c": 1297,
  "\u2581euro": 1298,
  "\u2581elles": 1299,
  "\u2581D\u00e9s": 1300,
  "\u2581domaine": 1301,
  "\u2581soient": 1302,
  "\u2581ville": 1303,
  "\u2581particulier": 1304,
  "ha": 1305,
  "\u2581naj": 1306,
  "\u2581Chyba": 1307,
  "sze": 1308,
  "\u2581grudnia": 1309,
  "lu": 1310,
  "\u2581environ": 1311,
  "\u2581star": 1312,
  "\u2581certaines": 1313,
  "\u2581ni\u0105": 1314,
  "\u2581musz\u0105": 1315,
  "\u2581Mo": 1316,
  "\u2581produkcji": 1317,
  "\u2581derni\u00e8re": 1318,
  "gra": 1319,
  "aurais": 1320,
  "ion": 1321,
  "\u2581passer": 1322,
  "ot": 1323,
  "n\u0119": 1324,
  "\u2581Pan": 1325,
  "\u2581Donc": 1326,
  "jour": 1327,
  "\u2581proposition": 1328,
  "\u2581suit": 1329,
  "\u2581Moi": 1330,
  "\u2581hommes": 1331,
  "\u2581dniu": 1332,
  "ris": 1333,
  "\u2581voulais": 1334,
  "argent": 1335,
  "a\u0142am": 1336,
  "\u2581savez": 1337,
  "\u2581Du": 1338,
  "\u25812011": 1339,
  "Y": 1340,
  "der": 1341,
  "\u2581Wsp\u00f3lnoty": 1342,
  "\u2022": 1343,
  "\u2581ligne": 1344,
  "\u2581important": 1345,
  "mo": 1346,
  "ana": 1347,
  "Dz": 1348,
  "\u2581ml": 1349,
  "4": 1350,
  "\u2581t\u00eate": 1351,
  "\u2581czasie": 1352,
  "\u2581nouvelles": 1353,
  "\u2581dr": 1354,
  "\u2581tuer": 1355,
  "\u2581moja": 1356,
  "esz": 1357,
  "\u2581wniosek": 1358,
  "czek": 1359,
  "\u2581laquelle": 1360,
  "\u2581bada\u0144": 1361,
  "ph": 1362,
  "\u2581oceny": 1363,
  "\u2581trouve": 1364,
  "\u2581ensemble": 1365,
  "mie": 1366,
  "\u2581ka\u017cdego": 1367,
  "6": 1368,
  "\u2581liste": 1369,
  "m\u00f3c": 1370,
  "\u2581objectifs": 1371,
  "\u2581voiture": 1372,
  "\u2581ku": 1373,
  "\u2581con": 1374,
  "\u2581relative": 1375,
  "\u2581okre\u015blonych": 1376,
  "\u2581badania": 1377,
  "\u2581wszystkim": 1378,
  "\u2581r\u00e9sultats": 1379,
  "ici": 1380,
  "avis": 1381,
  "sa": 1382,
  "ex\u00e9cution": 1383,
  "\u2581an": 1384,
  "\u25812013": 1385,
  "end": 1386,
  "\u2581eux": 1387,
  "\u2581Rozporz\u0105dzenie": 1388,
  "be": 1389,
  "\u2581quel": 1390,
  "\u2581+": 1391,
  "\u2581tw\u00f3j": 1392,
  "\u2581J\u00e9sus": 1393,
  "\u2581przyk\u0142ad": 1394,
  "\u2581g\u00e9n\u00e9ral": 1395,
  "\u2581takiego": 1396,
  "\u2581chcia\u0142": 1397,
  "\u2581energii": 1398,
  "z\u0119": 1399,
  "cze": 1400,
  "part": 1401,
  "owa\u0142": 1402,
  "\u2581mia\u0142a": 1403,
  "\u2581Comit\u00e9": 1404,
  "\u2581zasady": 1405,
  "\u2581krwi": 1406,
  "\u2581Panie": 1407,
  "\u2581Attend": 1408,
  "\u2581Quel": 1409,
  "\u2581zostanie": 1410,
  "pe": 1411,
  "\u2581programmes": 1412,
  "ang": 1413,
  "amp": 1414,
  "\u2581ci\u0105gu": 1415,
  "\u2581the": 1416,
  "\u2581super": 1417,
  "onne": 1418,
  "ujesz": 1419,
  "\u2581sait": 1420,
  "\u2581By\u0142": 1421,
  "\u2581faites": 1422,
  "ok": 1423,
  "\u2581niniejszej": 1424,
  "\u2581peur": 1425,
  "\u2581miejscu": 1426,
  "\u258140": 1427,
  "ance": 1428,
  "\u2581aucun": 1429,
  "\u2581razie": 1430,
  "\u2581questions": 1431,
  "\u2581lata": 1432,
  "\u2581montant": 1433,
  "iz": 1434,
  "\u2581politiques": 1435,
  "ac": 1436,
  "\u2581sytuacji": 1437,
  "\u2581zosta\u0142a": 1438,
  "\u2581font": 1439,
  "\u25812012": 1440,
  "\u2581syst\u00e8mes": 1441,
  "\u2581points": 1442,
  "\u2581jeste\u015bmy": 1443,
  "\u2581wsp\u00f3\u0142pracy": 1444,
  "\u2581aucune": 1445,
  "\u2581trzy": 1446,
  "ita": 1447,
  "ow": 1448,
  "\u2581dw\u00f3ch": 1449,
  "ley": 1450,
  "\u2581dzie\u0144": 1451,
  "\u2581poza": 1452,
  "\u2581effets": 1453,
  "\u2581okresie": 1454,
  "\u2581millions": 1455,
  "\u2581Har": 1456,
  "\u2581zastosowanie": 1457,
  "\u2581dzi\u0119ki": 1458,
  "tra": 1459,
  "\u2581Komisj\u0119": 1460,
  "\u2581film": 1461,
  "\u2581r\u00e9gime": 1462,
  "\u2581projet": 1463,
  "ll": 1464,
  "\u2581dziedzinie": 1465,
  "pie": 1466,
  "strze": 1467,
  "\u2581ko": 1468,
  "aux": 1469,
  "\u2581commune": 1470,
  "\u25812002": 1471,
  "\u2581femmes": 1472,
  "elles": 1473,
  "\u2581wtedy": 1474,
  "\u2581LE": 1475,
  "\u2581wzgl\u0119du": 1476,
  "\u2581dzia\u0142alno\u015bci": 1477,
  "\u2581venir": 1478,
  "\u2581All": 1479,
  "ab": 1480,
  "\u2581powodu": 1481,
  "\u2581b\u0119dziesz": 1482,
  "\u2581widzia\u0142": 1483,
  "\u2581n\u00e9cessaires": 1484,
  "\u2581stanowi": 1485,
  "\u2581wielu": 1486,
  "\u2581nadal": 1487,
  "\u2581devraient": 1488,
  "\u2581allez": 1489,
  "t\u00e9": 1490,
  "\u2581swoich": 1491,
  "\u2581cz\u0119\u015b\u0107": 1492,
  "cza": 1493,
  "\u2581dlaczego": 1494,
  "\u2581Sur": 1495,
  "\u2581r\u00e9": 1496,
  "ian": 1497,
  "\u2581chance": 1498,
  "\u2581zatem": 1499,
  "\u2581Peut": 1500,
  "\u2581Nigdy": 1501,
  "\u2581puis": 1502,
  "ge": 1503,
  "\u2581of": 1504,
  "\u2581exigences": 1505,
  "\u2581laisser": 1506,
  "\u2581march\u00e9s": 1507,
  "\u2581minut": 1508,
  "yl": 1509,
  "gu": 1510,
  "ible": 1511,
  "\u2581sortir": 1512,
  "\u2581leku": 1513,
  "\u2581assez": 1514,
  "\u2581r\u00e9f\u00e9rence": 1515,
  "gad": 1516,
  "\u2581stronie": 1517,
  "fa": 1518,
  "\u2581swoj\u0105": 1519,
  "\u2581cho": 1520,
  "\u2581nowych": 1521,
  "\u25815.": 1522,
  "JO": 1523,
  "\u2581aurait": 1524,
  "ack": 1525,
  "ick": 1526,
  "\u2581seront": 1527,
  "\u2581wszyscy": 1528,
  "\u2581but": 1529,
  "ec": 1530,
  "\u2581Con": 1531,
  "\u2581Dlatego": 1532,
  "\u2581chyba": 1533,
  "\u2581okres": 1534,
  "\u2581system": 1535,
  "asz": 1536,
  "\u2581public": 1537,
  "\u2581propos": 1538,
  "owany": 1539,
  "tor": 1540,
  "zie": 1541,
  "\u00e9nergie": 1542,
  "\u25812014": 1543,
  "\u0142u": 1544,
  "\u2581juin": 1545,
  "\u2581musisz": 1546,
  "\u2581John": 1547,
  "\u2581devant": 1548,
  "\u2581We": 1549,
  "\u2581avis": 1550,
  "\u2581mojego": 1551,
  "\u2581Tr\u00e8s": 1552,
  "\u2581Mia\u0142": 1553,
  "\u2581fins": 1554,
  "\u2581comit\u00e9": 1555,
  "wa\u0142": 1556,
  "able": 1557,
  "\u2581typu": 1558,
  "ina": 1559,
  "\u2581X": 1560,
  "homme": 1561,
  "\u2581Bar": 1562,
  "objet": 1563,
  "\u2581Ka": 1564,
  "\u2581p\u00eache": 1565,
  "\u2581znaczy": 1566,
  "\u2581problem": 1567,
  "\u2581\u015b": 1568,
  "appelle": 1569,
  "ci\u0105\u017c": 1570,
  "\u2581przepisy": 1571,
  "\u2581dzi\u015b": 1572,
  "\u2581Parce": 1573,
  "\u2581aide": 1574,
  "\u2581my\u015bl": 1575,
  "\u2581pierwszy": 1576,
  "\u2581aider": 1577,
  "\u2581fonds": 1578,
  "acji": 1579,
  "\u2581rester": 1580,
  "\u2581long": 1581,
  "\u2581petite": 1582,
  "\u2581dose": 1583,
  "\u2581\u017b": 1584,
  "\u2581In": 1585,
  "\u2581Maintenant": 1586,
  "\u2581portant": 1587,
  "\u2581Ba": 1588,
  "\u2581mm": 1589,
  "\u2581texte": 1590,
  "\u2581warunki": 1591,
  "\u2581pla\u00eet": 1592,
  "\u2581kt\u00f3r\u0105": 1593,
  "\u2581parle": 1594,
  "\u2581innymi": 1595,
  "ali": 1596,
  "\u2581kim": 1597,
  "\u2581mo\u017cliwo\u015bci": 1598,
  "\u2581surveillance": 1599,
  "\u2581connais": 1600,
  "\u2581panie": 1601,
  "\u2581lepiej": 1602,
  "\u2581Chcia\u0142": 1603,
  "\u2581probl\u00e8mes": 1604,
  "\u2581wam": 1605,
  "\u2581site": 1606,
  "\u00e9valuation": 1607,
  "\u2581Go": 1608,
  "\u2581Apr\u00e8s": 1609,
  "me": 1610,
  "cia": 1611,
  "\u2581Mamy": 1612,
  "ber": 1613,
  "\u2581zbyt": 1614,
  "2,": 1615,
  "\u2581dlatego": 1616,
  "\u2581najmniej": 1617,
  "\u2581okre\u015blone": 1618,
  "\u2581zawiera": 1619,
  "\u2581przypadkach": 1620,
  "\u2581terme": 1621,
  "\u2581Cz\u0142onkowskie": 1622,
  "\u2581zwi\u0105zane": 1623,
  "ski": 1624,
  "\u2581viens": 1625,
  "nous": 1626,
  "voir": 1627,
  "land": 1628,
  "\u2581corps": 1629,
  "\u2581Cela": 1630,
  "\u2581utilis\u00e9": 1631,
  "\u2581sieci": 1632,
  "\u2581directement": 1633,
  "\u2581pr\u00e9vues": 1634,
  "s\u0142uch": 1635,
  "\u2581entendu": 1636,
  "\u2581dzieje": 1637,
  "\u2581vient": 1638,
  "\u2581osoby": 1639,
  "ono": 1640,
  "\u2581nast\u0119puj\u0105ce": 1641,
  "action": 1642,
  "dzwoni": 1643,
  "\u2581Powiedzia\u0142": 1644,
  "\u2581wniosku": 1645,
  "\u2581prawo": 1646,
  "\u2581poziomie": 1647,
  "\u2581jakie": 1648,
  "\u2581mojej": 1649,
  "*": 1650,
  "\u2581znale\u017a\u0107": 1651,
  "\u2581co\u00fbts": 1652,
  "jcie": 1653,
  "\u2581Niniejsze": 1654,
  "zna": 1655,
  "a\u0142a": 1656,
  "ymi": 1657,
  "\u2581pomi\u0119dzy": 1658,
  "\u2581applicable": 1659,
  "\u2581jednego": 1660,
  "\u2581articles": 1661,
  "owo": 1662,
  "\u2581sein": 1663,
  "\u2581kg": 1664,
  "\u2581rok": 1665,
  "ania": 1666,
  "io": 1667,
  "\u2581kobiet": 1668,
  "\u2581terre": 1669,
  "\u2581Avec": 1670,
  "nej": 1671,
  "\u2581uwa\u017ca": 1672,
  "aire": 1673,
  "importation": 1674,
  "ien": 1675,
  "\u2581Gra": 1676,
  "\u2581grupy": 1677,
  "\u2581fonctionnement": 1678,
  "ud": 1679,
  "\u2581wiedzie\u0107": 1680,
  "\u2581jako\u015bci": 1681,
  "\u2581minutes": 1682,
  "\u2581CESE": 1683,
  "vo": 1684,
  "\u2581ka": 1685,
  "\u2581ca\u0142y": 1686,
  "\u2581demander": 1687,
  "\u2581R\u00e8glement": 1688,
  "\u2581regard": 1689,
  "\u2581d\u00e8s": 1690,
  "\u2581animaux": 1691,
  "\u2581police": 1692,
  "owie": 1693,
  "\u2581Komitetu": 1694,
  "\u2581zarz\u0105dzania": 1695,
  "zu": 1696,
  "\u2581gdyby": 1697,
  "\u2581gaz": 1698,
  "\u2581bar": 1699,
  "ell": 1700,
  "iel": 1701,
  "\u2581Quelle": 1702,
  "\u2581Ponadto": 1703,
  "\u2581Ob": 1704,
  "\u2581fonction": 1705,
  "\u2581jedynie": 1706,
  "\u2581czerwca": 1707,
  "autorit\u00e9": 1708,
  "\u2581Plus": 1709,
  "tain": 1710,
  "\u2581,\"": 1711,
  "\u2581Oczywi\u015bcie": 1712,
  "\u2581main": 1713,
  "\u2581dobry": 1714,
  "\u2581spraw": 1715,
  "\u2581cz\u0119sto": 1716,
  "\u00c9": 1717,
  "\u2581proc\u00e9dures": 1718,
  "\u2581Arr\u00eat": 1719,
  "uj\u0105": 1720,
  "\u2581Ju": 1721,
  "\u2581accord": 1722,
  "ement": 1723,
  "\u2581r\u00f3\u017cnych": 1724,
  "\u2581=": 1725,
  "va": 1726,
  "\u2581koszt\u00f3w": 1727,
  "\u2581propre": 1728,
  "mar": 1729,
  "\u2581formation": 1730,
  "\u2581Europejsk\u0105": 1731,
  "\u2581EN": 1732,
  "ri": 1733,
  "\u2581fichier": 1734,
  "\u2581jaki": 1735,
  "\u2581he": 1736,
  "\u2581processus": 1737,
  "\u2581musz\u0119": 1738,
  "\u2581unique": 1739,
  "\u2581position": 1740,
  "\u2581du\u017co": 1741,
  "\u2581applicables": 1742,
  "ru": 1743,
  "%": 1744,
  "\u2581powinno": 1745,
  "\u2581Ni": 1746,
  "\u2581moj\u0105": 1747,
  "\u2581celles": 1748,
  "\u2581c\u00f4t\u00e9": 1749,
  "\u2581p\u00f3\u017aniej": 1750,
  "\u2581miesi\u0119cy": 1751,
  "\u2581vol": 1752,
  "\u2581Vi": 1753,
  "\u2581syn": 1754,
  "\u2581[1],": 1755,
  "\u2581donne": 1756,
  "30": 1757,
  "c\u0119": 1758,
  "\u2581d\u00e9lai": 1759,
  "\u2581janvier": 1760,
  "li\u015bcie": 1761,
  "c\u0105": 1762,
  "\u2581risques": 1763,
  "\u2581coup": 1764,
  "ale": 1765,
  "\u2581outre": 1766,
  "\u2581ami": 1767,
  "\u2581lecz": 1768,
  "\u2581a\u017c": 1769,
  "\u2581Sa": 1770,
  "\u2581ile": 1771,
  "\u2581C\u00f3\u017c": 1772,
  "\u2581bezpo\u015brednio": 1773,
  "nu": 1774,
  "\u2581ressources": 1775,
  "\u2581mo": 1776,
  "\u2581powinni": 1777,
  "\u2581cen": 1778,
  "\u2581nouveaux": 1779,
  "\u2581respect": 1780,
  "bie": 1781,
  "\u2581genre": 1782,
  "ger": 1783,
  "con": 1784,
  "information": 1785,
  "\u2581zwierz\u0105t": 1786,
  "\u2581sob\u0105": 1787,
  "ite": 1788,
  "\u2581wcze\u015bniej": 1789,
  "ujemy": 1790,
  "up": 1791,
  "\u2581sp": 1792,
  "patrz": 1793,
  "\u2581pa\u0144stwach": 1794,
  "\u2581demand\u00e9": 1795,
  "\u2581DES": 1796,
  "\u2581projets": 1797,
  "\u2581personnel": 1798,
  "\u2581stosowane": 1799,
  "\u2581actions": 1800,
  "owane": 1801,
  "\u2581st\u0105d": 1802,
  "origine": 1803,
  "\u2581zone": 1804,
  "ron": 1805,
  "\u2581r\u00f4le": 1806,
  "ster": 1807,
  "wied": 1808,
  "\u25812000": 1809,
  "\u2581samym": 1810,
  "\u25812015": 1811,
  "port": 1812,
  "\u2581innego": 1813,
  "\u2581i\u017c": 1814,
  "\u2581ryzyka": 1815,
  "\u2581zwi\u0105zanych": 1816,
  "kr": 1817,
  "\u2581zapewnienia": 1818,
  "r\u00e9": 1819,
  "\u2581utiliser": 1820,
  "\u2581Monsieur": 1821,
  "\u2581juillet": 1822,
  "\u2581Br": 1823,
  "\u00e8re": 1824,
  "\u2581Dla": 1825,
  "r\u00f3b": 1826,
  "we": 1827,
  "\u2581Czemu": 1828,
  "\u2581rozporz\u0105dzeniem": 1829,
  "\u2581Europe": 1830,
  "\u2581Mo\u017cesz": 1831,
  "\u2581kraju": 1832,
  "\u2581met": 1833,
  "\u2581swoim": 1834,
  "lon": 1835,
  "Europe": 1836,
  "\u2581R\u00e9publique": 1837,
  "nes": 1838,
  "ure": 1839,
  "\u2581'": 1840,
  "\u2581vertu": 1841,
  "\u2581potem": 1842,
  "\u2581Rada": 1843,
  "\u2581Ste": 1844,
  "\u2581razy": 1845,
  "zek": 1846,
  "ic": 1847,
  "\u2581sp\u00e9cifiques": 1848,
  "\u2581m\u00e9decin": 1849,
  "\u2581Pi": 1850,
  "rzy": 1851,
  "\u266a": 1852,
  "\u2581m\u00f3wi\u0142": 1853,
  "ist": 1854,
  "\u2581Ben": 1855,
  "\u2581Mer": 1856,
  "\u2581musimy": 1857,
  "\u2581ka\u017cdym": 1858,
  "op": 1859,
  "\u2581nadziej\u0119": 1860,
  "\u2581martw": 1861,
  "\u2581ET": 1862,
  "\u2581noc": 1863,
  "\u2581lipca": 1864,
  "\u2581Eh": 1865,
  "\u2581amis": 1866,
  "\u2581communication": 1867,
  "\u2581soutien": 1868,
  "\u2581W\u0142a\u015b": 1869,
  "\u2581M\u00f3j": 1870,
  "don": 1871,
  "\u2581znaczenie": 1872,
  "\u258160": 1873,
  "\u2581Cour": 1874,
  "\u2581confiance": 1875,
  "\u2581stosuje": 1876,
  "\u2581num\u00e9ro": 1877,
  "\u2581Komitet": 1878,
  "ds": 1879,
  "su": 1880,
  "\u2581maj\u0105c": 1881,
  "gan": 1882,
  "\u2581bas": 1883,
  "\u2581Bardzo": 1884,
  "\u2581id\u00e9e": 1885,
  "agit": 1886,
  "\u2581km": 1887,
  "com": 1888,
  "\u2581finansowych": 1889,
  "vin": 1890,
  "\u2581sorte": 1891,
  "\u2581quatre": 1892,
  "isse": 1893,
  "\u2581jeu": 1894,
  "rad": 1895,
  "\u2581\u015bwiecie": 1896,
  "dz": 1897,
  "\u2581wieku": 1898,
  "\u2581robi\u0107": 1899,
  "\u2581semaine": 1900,
  "\u00e9es": 1901,
  "\u2581hotel": 1902,
  "\u2581aura": 1903,
  "\u2581tenu": 1904,
  "\u2581\u00e9tant": 1905,
  "\u2581wp\u0142yw": 1906,
  "\u2581Nawet": 1907,
  "\u2581tels": 1908,
  "ren": 1909,
  "\u2581mai": 1910,
  "ub": 1911,
  "m\u00eame": 1912,
  "lub": 1913,
  "}": 1914,
  "\u2581leczenia": 1915,
  "\u2581jednym": 1916,
  "industrie": 1917,
  "ensemble": 1918,
  "men": 1919,
  "ka\u017c": 1920,
  "\u2581EKES": 1921,
  "\u2581m\u00f3g\u0142": 1922,
  "ions": 1923,
  "lin": 1924,
  "\u2581New": 1925,
  "ii": 1926,
  "\u2581nowe": 1927,
  "\u2581su": 1928,
  "\u2581Zgodn": 1929,
  "\u2581jedno": 1930,
  "\u2581faveur": 1931,
  "\u2581pr\u00e8s": 1932,
  "\u2581stycznia": 1933,
  "\u00f3": 1934,
  "\u2581S\u0105": 1935,
  "\u2581Boga": 1936,
  "\u2581za\u0142\u0105cznika": 1937,
  "\u2581B\u0119dzie": 1938,
  "\u2581imieniu": 1939,
  "\u2581train": 1940,
  "\u2581trzeba": 1941,
  "\u2581voie": 1942,
  "rie": 1943,
  "\u2581l\u00e9gislation": 1944,
  "\u2581nationales": 1945,
  "\u2581oni": 1946,
  "ff": 1947,
  "emploi": 1948,
  "\u2581Pu": 1949,
  "acj\u0119": 1950,
  "\u2581Mme": 1951,
  "owa\u0142a": 1952,
  "\u2581sujet": 1953,
  "\u2581rodzaju": 1954,
  "szed\u0142": 1955,
  "\u2581Niech": 1956,
  "\u2581vont": 1957,
  "\u2581yeux": 1958,
  "\u2581t\u0105": 1959,
  "sy": 1960,
  "\u2581S\u0142ucha": 1961,
  "\u2581tel": 1962,
  "urs": 1963,
  "\u2581punkt": 1964,
  "\u2581kraj\u00f3w": 1965,
  "\u2581nasze": 1966,
  "\u2581comprends": 1967,
  "\u2581pr\u00e9sident": 1968,
  "\u2581Jego": 1969,
  "tka": 1970,
  "\u2581crit\u00e8res": 1971,
  "=": 1972,
  "\u2581devons": 1973,
  "ial": 1974,
  "\u2581\u015a": 1975,
  "\u2581longtemps": 1976,
  "\u2581Be": 1977,
  "\u2581zasad": 1978,
  "Nie": 1979,
  "\u2581Zosta": 1980,
  "\u2581organizacji": 1981,
  "ts": 1982,
  "\u2581pa\u0144stwo": 1983,
  "\u2581vis\u00e9es": 1984,
  "\u2581semaines": 1985,
  "ind": 1986,
  "ros": 1987,
  "\u2581ponad": 1988,
  "\u2581swojej": 1989,
  "\u2581cz\u0142owieka": 1990,
  "\u2581application": 1991,
  "ada": 1992,
  "\u2581gros": 1993,
  "\u25816.": 1994,
  "\u2581b\u0119dziemy": 1995,
  "sk": 1996,
  "5": 1997,
  "\u2581d\u0142ugo": 1998,
  "\u2581chercher": 1999,
  "\u2581kogo\u015b": 2000,
  "\u2581potrzeby": 2001,
  "\u2581ann\u00e9e": 2002,
  "\u2581szybko": 2003,
  "\u2581tu\u00e9": 2004,
  "\u2581charge": 2005,
  "\u2581wiedzia\u0142": 2006,
  "\u2581zobaczy\u0107": 2007,
  "\u2581deuxi\u00e8me": 2008,
  "\u2581warunk\u00f3w": 2009,
  "\u2581mo\u017cliwe": 2010,
  "\u2581dziw": 2011,
  "\u2581obrotu": 2012,
  "\u2581financement": 2013,
  "\u2581pensais": 2014,
  "\u2581konieczne": 2015,
  "\u2581octobre": 2016,
  "\u2581dur\u00e9e": 2017,
  "\u2581semble": 2018,
  "\u2581techniques": 2019,
  "ah": 2020,
  "\u2581potrzeb": 2021,
  "ker": 2022,
  "\u2581program": 2023,
  "\u2581El": 2024,
  "tro": 2025,
  "\u2581twoja": 2026,
  "\u2581dobra": 2027,
  "\u2581wed\u0142ug": 2028,
  "\u2581godzin": 2029,
  "environnement": 2030,
  "\u2581(\"": 2031,
  "\u2581strat\u00e9gie": 2032,
  "\u2581code": 2033,
  "\u2581vis\u00e9s": 2034,
  "\u2581garantir": 2035,
  "\u2581przeciw": 2036,
  "e\u0144": 2037,
  "\u2581pewno": 2038,
  "\u2581national": 2039,
  "\u2581ka\u017cdy": 2040,
  "\u2581financi\u00e8re": 2041,
  "my\u015bl": 2042,
  "\u2581solution": 2043,
  "\u2581Dis": 2044,
  "\u2581cr\u00e9dit": 2045,
  "\u2581Spo": 2046,
  "\u2581jouer": 2047,
  "bi\u0142": 2048,
  "\u2581and": 2049,
  "\u2581wobec": 2050,
  "ap": 2051,
  "\u2581bureau": 2052,
  "all": 2053,
  "\u2581Bruxelles": 2054,
  "\u2581Rien": 2055,
  "\u2581nimi": 2056,
  "kon": 2057,
  "{": 2058,
  "\u2581haut": 2059,
  "\u2581ilo\u015bci": 2060,
  "\u2581procedury": 2061,
  "\u2581parl\u00e9": 2062,
  "\u2581uwadze": 2063,
  "\")": 2064,
  "\u2581wy\u0142\u0105cznie": 2065,
  "\u2581r\u00e9seau": 2066,
  "essai": 2067,
  "\u2581Ok": 2068,
  "\u2581\u015awi": 2069,
  "\u2581umowy": 2070,
  "\u2581przeciwko": 2071,
  "\u2581devez": 2072,
  "\u2581nast\u0119puje": 2073,
  "\u2581jakim": 2074,
  "\u2581zanim": 2075,
  "\u2581Bez": 2076,
  "\u2581sprawy": 2077,
  "\u2581suivantes": 2078,
  "\u2581vite": 2079,
  "\u2581tyle": 2080,
  "\u2581propres": 2081,
  "entre": 2082,
  "\u2581d\u00e9but": 2083,
  "\u2581relatif": 2084,
  "\u2581v": 2085,
  "\u2581wchodzi": 2086,
  "\u2581niniejszym": 2087,
  "\u2581Char": 2088,
  "\u2581fini": 2089,
  "\u2581fr\u00e8re": 2090,
  "\u2581diff\u00e9rents": 2091,
  "qui": 2092,
  "\u2581odpowiedzi": 2093,
  "\u2581zmian": 2094,
  "\u2581rozporz\u0105dzeniu": 2095,
  "\u2581sprzeda\u017cy": 2096,
  "\u2581choix": 2097,
  "\u2581poids": 2098,
  "\u2581mar": 2099,
  "\u2581Paul": 2100,
  "\u2581pracownik\u00f3w": 2101,
  "\u2581total": 2102,
  "\u2581\u015brodowiska": 2103,
  "nn": 2104,
  "\u2581mars": 2105,
  "\u2581croissance": 2106,
  "\u2581ch\u0142o": 2107,
  "\u2581powie": 2108,
  "w\u00f3j": 2109,
  "\u2581souvent": 2110,
  "\u2581cinq": 2111,
  "\u2581IV": 2112,
  "\u25812016": 2113,
  "\u2581poziom": 2114,
  "\u2581normes": 2115,
  "gle": 2116,
  "fi": 2117,
  "\u2581H\u00e9": 2118,
  "\u2581officiel": 2119,
  "\u017cy": 2120,
  "\u2581jakie\u015b": 2121,
  "ois": 2122,
  "\u2581r\u00e9ponse": 2123,
  "\u2581m\u00e9dicaments": 2124,
  "\u2581zar\u00f3wno": 2125,
  "\u2581wa\u017cne": 2126,
  "\u2581autant": 2127,
  "ux": 2128,
  "\u2581v\u00e9rit\u00e9": 2129,
  "\u2581sw\u00f3j": 2130,
  "\u2581idzie": 2131,
  "\u2581Ed": 2132,
  "\u2581t\u00e9l\u00e9phone": 2133,
  "\u2581rendre": 2134,
  "\u2581chambre": 2135,
  "\u2581takim": 2136,
  "\u2581jaki\u015b": 2137,
  "cja": 2138,
  "\u2581B\u00f3g": 2139,
  "res": 2140,
  "\u2581affaires": 2141,
  "\u2581Pani": 2142,
  "\u2581per": 2143,
  "\u2581oko\u0142o": 2144,
  "ik": 2145,
  "\u2581for": 2146,
  "\u2581ceny": 2147,
  "\u2581\u00e9": 2148,
  "\u2581jeunes": 2149,
  "\u2581Di": 2150,
  "\u2581concurrence": 2151,
  "\u2581prise": 2152,
  "\u2581taka": 2153,
  "\u2581Mat": 2154,
  "\u2581okolicy": 2155,
  "ence": 2156,
  "\u2581drodze": 2157,
  "\u2581commun": 2158,
  "\u2581Gdy": 2159,
  "\u2581realizacji": 2160,
  "pad": 2161,
  "tk": 2162,
  "\u2581\u015arodki": 2163,
  "j\u0105cych": 2164,
  "ator": 2165,
  "tan": 2166,
  "\u2581arrive": 2167,
  "20": 2168,
  "\u2581zdrowia": 2169,
  "gen": 2170,
  "\u2581arriv\u00e9": 2171,
  "\u2581\u00e9crit": 2172,
  "\u2581dzisiaj": 2173,
  "\u2581visant": 2174,
  "\u2581Ze": 2175,
  "\u2581permettre": 2176,
  "\u2581telefon": 2177,
  "\u2581\u00e9tudes": 2178,
  "\u2581organy": 2179,
  "\u2581odpowiednio": 2180,
  "\u2581Voil\u00e0": 2181,
  "\u2581bord": 2182,
  "\u2581nazywa": 2183,
  "bi\u0107": 2184,
  "ann\u00e9e": 2185,
  "\u2581us\u0142ugi": 2186,
  "\u2581zostawi": 2187,
  "\u2581g\u0142up": 2188,
  "\u2581jednej": 2189,
  "\u2581pr\u00e9": 2190,
  "\u2581opinii": 2191,
  "\u2581substancji": 2192,
  "\u2581pa\u017adziernika": 2193,
  "\u2581San": 2194,
  "exportation": 2195,
  "fer": 2196,
  "\u2581producteurs": 2197,
  "\u2581The": 2198,
  "\u2581plut\u00f4t": 2199,
  "\u2581najbardziej": 2200,
  "\u2581matin": 2201,
  "acc\u00e8s": 2202,
  "\u2581sociale": 2203,
  "\u2581Wszyscy": 2204,
  "\u2581Poniewa\u017c": 2205,
  "eli": 2206,
  "sto": 2207,
  "amour": 2208,
  "\u2581meilleur": 2209,
  "\u2581Str": 2210,
  "\u2581pomoc\u0105": 2211,
  "\u2581drzwi": 2212,
  "ino": 2213,
  "asse": 2214,
  "):": 2215,
  "\u2581Spraw": 2216,
  "\u2581warto\u015b\u0107": 2217,
  "\u2581mari": 2218,
  "\u2581demain": 2219,
  "\u2581mo\u017cliwo\u015b\u0107": 2220,
  "\u2581mniej": 2221,
  "ti": 2222,
  "wal": 2223,
  "\u2581Cz\u0142onkowskich": 2224,
  "\u2581innym": 2225,
  "\u2581zapewni\u0107": 2226,
  "19": 2227,
  "use": 2228,
  "l\u00e0": 2229,
  "\u2581trzecich": 2230,
  "han": 2231,
  "\u2581krajowych": 2232,
  "n\u0105\u0107": 2233,
  "\u2581transportu": 2234,
  "\u2581nature": 2235,
  "\u2581mieszka": 2236,
  "\u2581twoim": 2237,
  "\u2581Lo": 2238,
  "sh": 2239,
  "\u2581Tous": 2240,
  "ante": 2241,
  "\u2581Me": 2242,
  "\u2581racj\u0119": 2243,
  "\u2581Mes": 2244,
  "\u25810,": 2245,
  "\u2581Jakie": 2246,
  "\u2581valeurs": 2247,
  "y\u0107": 2248,
  "\u2581pa": 2249,
  "\u2581decyzj\u0119": 2250,
  "\u2581Aby": 2251,
  "entreprise": 2252,
  "\u2581cz\u0142owiek": 2253,
  "\u2581technique": 2254,
  "\u2581zosta\u0142o": 2255,
  "kami": 2256,
  "bu": 2257,
  "jmy": 2258,
  "\u2581obecnie": 2259,
  "\u2581Traktatu": 2260,
  "oi": 2261,
  "awi": 2262,
  "\u2581organ": 2263,
  "\u2581\u015bwietn": 2264,
  "\u2581so": 2265,
  "\u2581Wszystkie": 2266,
  "ins": 2267,
  "\u2581c\u0153ur": 2268,
  "r\u00f3": 2269,
  "\u2581lorsqu": 2270,
  "\u2581Ciekaw": 2271,
  "\u2581Wal": 2272,
  "OK": 2273,
  "\u2581naszych": 2274,
  "\u2581powiedzia\u0142a": 2275,
  "\u2581Ros": 2276,
  "so": 2277,
  "\u2581Ri": 2278,
  "\u2581jedn\u0105": 2279,
  "\u2581Royaume": 2280,
  "\u2581v\u00e9hicules": 2281,
  "\u2581udzia\u0142": 2282,
  "\u2581modalit\u00e9s": 2283,
  "\u2581dotyczy": 2284,
  "\u2581septembre": 2285,
  "\u2581Wygl\u0105da": 2286,
  "tur": 2287,
  "\u2581EOG": 2288,
  "\u2581Star": 2289,
  "\u2581Traktat": 2290,
  "\u2581perdu": 2291,
  "\u2581jak\u0105": 2292,
  "\u2581Son": 2293,
  "pos": 2294,
  "he": 2295,
  "dziel": 2296,
  "\u2581parents": 2297,
  "\u2581system\u00f3w": 2298,
  "\u2581pr\u00eat": 2299,
  "\u2581carte": 2300,
  "\u25812001": 2301,
  "\u2581r\u00e9gions": 2302,
  "eni": 2303,
  "\u2581Ton": 2304,
  "\u2581maja": 2305,
  "\u2581loin": 2306,
  "ans": 2307,
  "l\u00e9": 2308,
  "\u2581ait": 2309,
  "\u2581europ\u00e9ennes": 2310,
  "\u2581koniec": 2311,
  "\u2581novembre": 2312,
  "\u2581St": 2313,
  "\u2581Stan": 2314,
  "\u2581Or": 2315,
  "\u2581importations": 2316,
  "\u2581centre": 2317,
  "\u2581Tel": 2318,
  "\u2581libre": 2319,
  "den": 2320,
  "ko\u0144cz": 2321,
  "\u2581frais": 2322,
  "\u2581pourrais": 2323,
  "si\u0119": 2324,
  "\u2581Ar": 2325,
  "\u2581trzech": 2326,
  "\u258190": 2327,
  "\u2581Man": 2328,
  "\u2581dziecko": 2329,
  "entr\u00e9e": 2330,
  "\u2581face": 2331,
  "\u2581tobie": 2332,
  "\u2581lequel": 2333,
  "\u2581Li": 2334,
  "\u2581b\u0105d\u017a": 2335,
  "ES": 2336,
  "\u2581laisse": 2337,
  "0": 2338,
  "\u2581Lorsque": 2339,
  "\u2581termes": 2340,
  "usz": 2341,
  "\u2581attend": 2342,
  "\u2581czeka": 2343,
  "bit": 2344,
  "\u2581EU": 2345,
  "vers": 2346,
  "str": 2347,
  "any": 2348,
  "bas": 2349,
  "\u25811999": 2350,
  "\u2581dawki": 2351,
  "ane": 2352,
  "ten": 2353,
  "\u2581ca\u0142o\u015bci": 2354,
  "\u2581disponibles": 2355,
  "\u2581produkty": 2356,
  "\u2581b\u00e9b\u00e9": 2357,
  "ateur": 2358,
  "50": 2359,
  "\u2581gr\u00e2ce": 2360,
  "bia": 2361,
  "\u2581principe": 2362,
  "\u2581d\u00e9penses": 2363,
  "aider": 2364,
  "\u015br\u00f3d": 2365,
  "\u2581modifi\u00e9": 2366,
  "\u2581bi": 2367,
  "\u00ea": 2368,
  "\u2581swojego": 2369,
  "owana": 2370,
  "\u2581Kar": 2371,
  "\u2581Ke": 2372,
  "enqu\u00eate": 2373,
  "\u2581Sz": 2374,
  "dra": 2375,
  "\u2581ferai": 2376,
  "\u2581Win": 2377,
  "\u2581Jeszcze": 2378,
  "\u2581zabaw": 2379,
  "\u00f4": 2380,
  "\u2581S\u0142ysz": 2381,
  "\u2581nocy": 2382,
  "\u2581prac": 2383,
  "\u2581Pewn": 2384,
  "sie": 2385,
  "\u2581territoire": 2386,
  "\u2581parti": 2387,
  "dessus": 2388,
  "\u2581wody": 2389,
  "\u2581Am": 2390,
  "\u2581200": 2391,
  "\u2581wymaga": 2392,
  "\u2581Jan": 2393,
  "\u2581financiers": 2394,
  "our": 2395,
  "\u2581kur": 2396,
  "chodzi": 2397,
  "heure": 2398,
  "\u2581dehors": 2399,
  "sse": 2400,
  "zd": 2401,
  "\u2581d\u00e9claration": 2402,
  "\u2581concern\u00e9": 2403,
  "\u2581test": 2404,
  "\u2581kup": 2405,
  "\u2581pomys\u0142": 2406,
  "\u2581suivi": 2407,
  "ole": 2408,
  "\u2581ko\u0144cu": 2409,
  "if": 2410,
  "\u2581\u017cadnych": 2411,
  "\u2581wsparcia": 2412,
  "\u2581Pe": 2413,
  "\u2581r\u00e9gion": 2414,
  "\u2581Jasn": 2415,
  "\u2581utilis\u00e9s": 2416,
  "\u2581enfant": 2417,
  "\u2581champ": 2418,
  "cu": 2419,
  "\u25815,": 2420,
  "\u2581pieni\u0105dze": 2421,
  "\u2581D\u00e9": 2422,
  "\u2581quelle": 2423,
  "\u2581naszej": 2424,
  "\u2581marca": 2425,
  "\u2581conseil": 2426,
  "eurs": 2427,
  "\u2581chwili": 2428,
  "\u2581odpowiednie": 2429,
  "\u2581cel": 2430,
  "\u2581retour": 2431,
  "$": 2432,
  "\u2581wszelkie": 2433,
  "\u2581niezb\u0119dne": 2434,
  "\u2581meilleure": 2435,
  "\u2581vis\u00e9e": 2436,
  "Po": 2437,
  "\u2581Christ": 2438,
  "\u2581Bi": 2439,
  "\u2581merci": 2440,
  "\u2581savais": 2441,
  "\u2581poni\u017cej": 2442,
  "\u2581budget": 2443,
  "\u2581korzy\u015bci": 2444,
  "1/": 2445,
  "\u0142\u0105cz": 2446,
  "\u2581avril": 2447,
  "efficacit\u00e9": 2448,
  "\u2581Sta": 2449,
  "sty": 2450,
  "\u2581Zawsze": 2451,
  "\u2581Sans": 2452,
  "\u2581Journal": 2453,
  "\u2581program\u00f3w": 2454,
  "\u2581ziemi": 2455,
  "\u2581poziomu": 2456,
  "\u2581By": 2457,
  "\u2581Fais": 2458,
  "vi": 2459,
  "\u2581wysoko\u015bci": 2460,
  "\u2581social": 2461,
  "j\u0105ce": 2462,
  "\u2581gar\u00e7on": 2463,
  "\u2581Europejska": 2464,
  "\u2581voil\u00e0": 2465,
  "\u2581Dan": 2466,
  "\u2581w\u0142a\u015bciwe": 2467,
  "\u2581suivants": 2468,
  "\u2581page": 2469,
  "\u2581route": 2470,
  "\u2581instytucji": 2471,
  "\u2581citoyens": 2472,
  "\u2581rat": 2473,
  "\u2581plein": 2474,
  "\u2581section": 2475,
  "\u2581ryzyko": 2476,
  "\u2581Ga": 2477,
  "\u2581Exc": 2478,
  "\u2581telles": 2479,
  "\u2581alin\u00e9a": 2480,
  "d\u00e9": 2481,
  "\u2581cons\u00e9quent": 2482,
  "gt": 2483,
  "\u2581croire": 2484,
  "\u2581imi\u0119": 2485,
  "\u2581\u00c9": 2486,
  "\u2581figurant": 2487,
  "assurer": 2488,
  "\u2581znajduje": 2489,
  "\u2581Cas": 2490,
  "\u2581towar\u00f3w": 2491,
  "a\u017c": 2492,
  "\u2581types": 2493,
  "\u2581diff\u00e9rentes": 2494,
  "naj": 2495,
  "\u2581emisji": 2496,
  "lic": 2497,
  "\u2581rend": 2498,
  "\u2581ostatnio": 2499,
  "tri": 2500,
  "\u2581kilku": 2501,
  "eniu": 2502,
  "\u2581participation": 2503,
  "\u2581\u017cyje": 2504,
  "\u258180": 2505,
  "\u2581loi": 2506,
  "tant": 2507,
  "\u2581dobre": 2508,
  "des": 2509,
  "ille": 2510,
  "ch\u00e9": 2511,
  "robot": 2512,
  "\u2581Gdyby": 2513,
  "\u2581Elles": 2514,
  "\u2581mot": 2515,
  "\u2581capacit\u00e9": 2516,
  "\u2581endroit": 2517,
  "\u2581justice": 2518,
  "\u2581handlu": 2519,
  "\u2581tenir": 2520,
  "\u2581Frank": 2521,
  "\u2581CE": 2522,
  "\u2581mog\u0142a": 2523,
  "\u2581financier": 2524,
  "\u2581op\u00e9rations": 2525,
  "\u2581marche": 2526,
  "\u2581France": 2527,
  "\u2581\u00e9conomiques": 2528,
  "\u2581re\u00e7u": 2529,
  "czka": 2530,
  "ort": 2531,
  "000": 2532,
  "\u2581numer": 2533,
  "\u2581Mal": 2534,
  "\u2581\u015bwiat": 2535,
  "\u2581paiement": 2536,
  "ham": 2537,
  "\u2581venu": 2538,
  "aimerai": 2539,
  "\u2581wzrostu": 2540,
  "\u2581histoire": 2541,
  "\u2581Toutefois": 2542,
  "\u2581publics": 2543,
  "Unis": 2544,
  "\u2581drugiej": 2545,
  "ide": 2546,
  "fr": 2547,
  "\u2581possibilit\u00e9": 2548,
  "\u2581comp\u00e9tentes": 2549,
  "k\u0105d": 2550,
  "7": 2551,
  "rac": 2552,
  "\u2581pr\u00e9vue": 2553,
  "\u2581uwagi": 2554,
  "\u2581changer": 2555,
  "\u2581So": 2556,
  "esp\u00e8re": 2557,
  "\u2581appel\u00e9": 2558,
  "\u2581ojciec": 2559,
  "\u2581300": 2560,
  "\u2581zastosowania": 2561,
  "\u2581Potrzeb": 2562,
  "euse": 2563,
  "\u2581ok": 2564,
  "\u2581dessus": 2565,
  "\u2581pokoju": 2566,
  "\u2581zw\u0142aszcza": 2567,
  "\u2581Sk\u0105d": 2568,
  "\u2581wrze\u015bnia": 2569,
  "\u2581twojej": 2570,
  "abord": 2571,
  "\u2581document": 2572,
  "\u2581miejsc": 2573,
  "\u2581pratiques": 2574,
  "\u2581besoins": 2575,
  "\u2581zones": 2576,
  "\u2581dwie": 2577,
  "\u2581lumi\u00e8re": 2578,
  "\u2581wydaje": 2579,
  "\u2581faisant": 2580,
  "\u2581d\u00e9cisions": 2581,
  "\u2581vivre": 2582,
  "\u2581dzia\u0142a": 2583,
  "\u2581aides": 2584,
  "h\u00f4tel": 2585,
  "i\u0105": 2586,
  "\u2581journ\u00e9e": 2587,
  "\u2581al": 2588,
  "czyn": 2589,
  "\u2581ga": 2590,
  "\u2581pozycji": 2591,
  "\u2581wsp\u00f3lnego": 2592,
  "\u2581byli": 2593,
  "\u2581communautaires": 2594,
  "\u2581strategii": 2595,
  "\u2581moyens": 2596,
  "\u2581Ex": 2597,
  "\u2581spa": 2598,
  "\u2581foi": 2599,
  "\u2581post\u0119powania": 2600,
  "\u2581feu": 2601,
  "\u2581poli": 2602,
  "Q": 2603,
  "\u2581Personne": 2604,
  "\u2581permet": 2605,
  "\u2581inter": 2606,
  "14": 2607,
  "\u2581prac\u0119": 2608,
  "ys": 2609,
  "\u2581Ru": 2610,
  "\u2581maladie": 2611,
  "15": 2612,
  "vis": 2613,
  "\u2581r\u00e9duction": 2614,
  "\u2581listopada": 2615,
  "\u2581comprendre": 2616,
  "\u2581NA": 2617,
  "\u2581sektora": 2618,
  "\u2581contenant": 2619,
  "\u2581postaci": 2620,
  "\u2581m\u00f3wi\u0107": 2621,
  "\u2581pr\u00e9vu": 2622,
  "\u2581kwestii": 2623,
  "8": 2624,
  "\u2581Lot": 2625,
  "\u2581mati\u00e8res": 2626,
  "\u2581Zobacz": 2627,
  "\u2581M\u00eame": 2628,
  "\u2581comptes": 2629,
  "\u2581wraz": 2630,
  "ks": 2631,
  "\u2581Europejski": 2632,
  "\u2581By\u0142a": 2633,
  "ER": 2634,
  "\u2581consommation": 2635,
  "\u2581consommateurs": 2636,
  "\u2581\u017cyciu": 2637,
  "\u2581nationaux": 2638,
  "12": 2639,
  "\u2581jeune": 2640,
  "\u2581An": 2641,
  "nij": 2642,
  "lor": 2643,
  "qu": 2644,
  "int": 2645,
  "bym": 2646,
  "\u2581efficace": 2647,
  "\u2581int\u00e9rieur": 2648,
  "\u2581fournir": 2649,
  "usza": 2650,
  "\u2581decyzja": 2651,
  "t\u00f3w": 2652,
  "\u2581avaient": 2653,
  "ate": 2654,
  "wia": 2655,
  "\u2581publication": 2656,
  "2/": 2657,
  "\u2581livre": 2658,
  "\u2581producent\u00f3w": 2659,
  "\u2581plupart": 2660,
  "avait": 2661,
  "jecha\u0142": 2662,
  "\u2581powy\u017cej": 2663,
  "\u2581v\u00e9hicule": 2664,
  "\u2581m\u00f3g\u0142by": 2665,
  "\u2581latach": 2666,
  "it\u00e9": 2667,
  "\u2581serca": 2668,
  "\u2581koszty": 2669,
  "\u2581principes": 2670,
  "\u2581pr\u00e9sentant": 2671,
  "\u2581crise": 2672,
  "informations": 2673,
  "\u2581vieux": 2674,
  "\u2581kwietnia": 2675,
  "war": 2676,
  "kur": 2677,
  "\u2581inny": 2678,
  "\u2581manque": 2679,
  "\u2581ka\u017cdej": 2680,
  "\u2581istnieje": 2681,
  "\u2581przywozu": 2682,
  "tal": 2683,
  "\u2581documents": 2684,
  "EN": 2685,
  "\u2581Points": 2686,
  "\u2581dost\u0119pu": 2687,
  "administration": 2688,
  "no\u015b\u0107": 2689,
  "\u2581prawie": 2690,
  "\u2581cz": 2691,
  "\u2581nasz": 2692,
  "hi": 2693,
  "\u2581miasta": 2694,
  "nal": 2695,
  "\u2581co\u00fbt": 2696,
  "\u2581gouvernement": 2697,
  "i\u0142": 2698,
  "\u2581zostan\u0105": 2699,
  "\u2581six": 2700,
  "importe": 2701,
  "\u2581nowego": 2702,
  "\u2581final": 2703,
  "\u2581zgodne": 2704,
  "\u2581Va": 2705,
  "ep": 2706,
  "\u2581fi": 2707,
  "\u2581puisse": 2708,
  "\u2581Wien": 2709,
  "\u2581vente": 2710,
  "\u2581kole": 2711,
  "\u2581disposition": 2712,
  "\u2581Pr\u00e9sident": 2713,
  "\u2581voudrais": 2714,
  "prze": 2715,
  "\u2581sol": 2716,
  "rez": 2717,
  "\u2581marchandises": 2718,
  "\u2581fil": 2719,
  "arrive": 2720,
  "\u2581preuve": 2721,
  "\u2581prises": 2722,
  "czki": 2723,
  "\u2581pe\u0142ni": 2724,
  "\u2581obligations": 2725,
  "\u2581amour": 2726,
  "\u2581stosowanie": 2727,
  "\u2581guerre": 2728,
  "\u2581sprawozdania": 2729,
  "\u2581pr": 2730,
  "\u2581chef": 2731,
  "\u2581kon": 2732,
  "\u2581soci\u00e9t\u00e9s": 2733,
  "\u2581nombreux": 2734,
  "\u2581Gu": 2735,
  "\u2581Notre": 2736,
  "\u2581ensuite": 2737,
  "\u2581demandes": 2738,
  "ajcie": 2739,
  "\u2581force": 2740,
  "\u2581\u00e9ch\u00e9ant": 2741,
  "nika": 2742,
  "\u2581\u015bmierci": 2743,
  "\u2581David": 2744,
  "\u2581f\u00e9vrier": 2745,
  "\u2581czego\u015b": 2746,
  "\u2581Nasz": 2747,
  "\u2581cr\u00e9ation": 2748,
  "oir": 2749,
  "\u2581dost\u0119p": 2750,
  "\u2581s\u0142owa": 2751,
  "\u2581wzgl\u0119dem": 2752,
  "\u2581(1)": 2753,
  "\u2581changement": 2754,
  "eks": 2755,
  "\u2581r\u00e9duire": 2756,
  "\u2581compter": 2757,
  "\u2581500": 2758,
  "\u2581civile": 2759,
  "\u2581cia\u0142a": 2760,
  "\u2581nationale": 2761,
  "\u2581pochodzenia": 2762,
  "\u2581#": 2763,
  "\u2581facile": 2764,
  "\u2581Jaki": 2765,
  "\u2581filles": 2766,
  "\u2581Nikt": 2767,
  "\u2581CO": 2768,
  "\u2581revoir": 2769,
  "\u2581jakby": 2770,
  "\u2581chcia\u0142a": 2771,
  "\u2581spraw\u0119": 2772,
  "\u2581liczby": 2773,
  "\u2581suppl\u00e9mentaires": 2774,
  "\u2581p\u0142atno\u015bci": 2775,
  "\u2581terytorium": 2776,
  "\u2581mln": 2777,
  "\u2581juridique": 2778,
  "py": 2779,
  "\u2581garde": 2780,
  "/2006": 2781,
  "\u2581wraca": 2782,
  "lar": 2783,
  "\u2581assurer": 2784,
  "rod": 2785,
  "pomni": 2786,
  "sen": 2787,
  "arr\u00eat": 2788,
  "\u2581Gar": 2789,
  "\u2581simple": 2790,
  "\u2581potrzebuje": 2791,
  "\u2581modifier": 2792,
  "ong": 2793,
  "\u2581musia\u0142": 2794,
  "\u2581tra": 2795,
  "top": 2796,
  "\u2581szczeg\u00f3lnie": 2797,
  "\u2581voulait": 2798,
  "\u2581\u015bwiata": 2799,
  "\u2581utilisation": 2800,
  "\u2581groupes": 2801,
  "\u2581cons\u00e9quence": 2802,
  "\u2581allons": 2803,
  "wiesz": 2804,
  "\u2581mourir": 2805,
  "\u2581uniquement": 2806,
  "\u2581travailler": 2807,
  "\u2581attention": 2808,
  "\u2581Jezus": 2809,
  "\u00c3": 2810,
  "\u2581permettant": 2811,
  "\u2581ad": 2812,
  "\u2581odpowiednich": 2813,
  "\u2581rodziny": 2814,
  "\u2581comp\u00e9tente": 2815,
  "mon": 2816,
  "\u2581And": 2817,
  "\u2581joue": 2818,
  "\u2581ca\u0142ej": 2819,
  "\u00f3r": 2820,
  "\u2581My": 2821,
  "\u2581zatrudnienia": 2822,
  "X": 2823,
  "\u2581obj\u0119te": 2824,
  "haque": 2825,
  "\u2581prot\u00e9ger": 2826,
  "\u2581conformit\u00e9": 2827,
  "int\u00e9rieur": 2828,
  "rozmawia\u0107": 2829,
  "\u2581instruments": 2830,
  "\u2581substances": 2831,
  "\u2581tableau": 2832,
  "\u2581jakiego": 2833,
  "\u2581rozw\u00f3j": 2834,
  "\u2581doute": 2835,
  "ordre": 2836,
  "\u2581mains": 2837,
  "\u2581Tam": 2838,
  "\u2581naszego": 2839,
  "\u2581pierwsze": 2840,
  "\u2581ca": 2841,
  "\u2581be": 2842,
  "stan": 2843,
  "stra": 2844,
  "\u2581pr\u00e9voit": 2845,
  "\u2581soumis": 2846,
  "no\u015bci": 2847,
  "\u2581contient": 2848,
  "AL": 2849,
  "iste": 2850,
  "\u2581chwil\u0119": 2851,
  "kie": 2852,
  "\u2581Moja": 2853,
  "\u2581fera": 2854,
  "owa\u0142em": 2855,
  "\u2581Bibli": 2856,
  "\u2581difficile": 2857,
  "aman": 2858,
  "\u2581Uwa\u017ca": 2859,
  "\u2581penser": 2860,
  "\u2581Europie": 2861,
  "\u2581instituant": 2862,
  "analyse": 2863,
  "\u2581Luc": 2864,
  "n\u00e9": 2865,
  "\u2581Fa": 2866,
  "\u2581celem": 2867,
  "\u2581fer": 2868,
  "\u2581masy": 2869,
  "\u2581z\u0142a": 2870,
  "dow": 2871,
  "dans": 2872,
  "\u2581domaines": 2873,
  "\u2581mariage": 2874,
  "\u2581responsable": 2875,
  "applique": 2876,
  "\u2581x": 2877,
  "\u2581stosowa\u0107": 2878,
  "\u2581Kon": 2879,
  "ras": 2880,
  "\u2581obj\u0119tych": 2881,
  "ung": 2882,
  "\u2581oczy": 2883,
  "j\u0105cy": 2884,
  "sta\u0142": 2885,
  "\u2581or": 2886,
  "\u2581Art": 2887,
  "+": 2888,
  "\u00e8": 2889,
  "bro": 2890,
  "\u25811/": 2891,
  "\u2581pewien": 2892,
  "\u2581pouvons": 2893,
  "\u2581importe": 2894,
  "\u2581faible": 2895,
  "\u258145": 2896,
  "\u2581Sha": 2897,
  "\u2581by\u0142em": 2898,
  "\u2581kiedy\u015b": 2899,
  "investissement": 2900,
  "pak": 2901,
  "\u2581obejmuje": 2902,
  "\u2581spo": 2903,
  "\u2581akapit": 2904,
  "\u2581stron": 2905,
  "9": 2906,
  "\u2581nikt": 2907,
  "tion": 2908,
  "ven": 2909,
  "\u2581m\u00e9dicament": 2910,
  "br": 2911,
  "\u2581pami\u0119ta": 2912,
  "\u2581message": 2913,
  "\u2581twoj\u0105": 2914,
  "\u25816,": 2915,
  "\u2581pojazd\u00f3w": 2916,
  "\u2581go\u015bci": 2917,
  "\u2581dniem": 2918,
  "\u2581okresu": 2919,
  "ium": 2920,
  "\u2581DU": 2921,
  "\u2581kategorii": 2922,
  "\u2581PRZYJMUJ": 2923,
  "\u2581g\u00e9n\u00e9rale": 2924,
  "\u2581brak": 2925,
  "uk": 2926,
  "\u2581gry": 2927,
  "rt": 2928,
  "\u2581m\u0119\u017cczyzn": 2929,
  "\u2581ailleurs": 2930,
  "\u2581organismes": 2931,
  "\u2581finansowania": 2932,
  "05": 2933,
  "\u2581li\u00e9s": 2934,
  "\u2581papa": 2935,
  "\u2581da\u0142": 2936,
  "\u2581Dziennik": 2937,
  "\u2581zgodno\u015bci": 2938,
  "\u2581rozmawia": 2939,
  "\u2581manger": 2940,
  "\u2581pytanie": 2941,
  "ix": 2942,
  "\u258132": 2943,
  "\u2581sama": 2944,
  "\u2581Mo\u017cemy": 2945,
  "\u2581heure": 2946,
  "\u2581kwoty": 2947,
  "\u2581VI": 2948,
  "dzia\u0142": 2949,
  "1,": 2950,
  "\u2581Fonds": 2951,
  "ano": 2952,
  "\u2581danego": 2953,
  "\u2581lignes": 2954,
  "\u2581combien": 2955,
  "mat": 2956,
  "\u2581wyniku": 2957,
  "\u2581zobacz": 2958,
  "ue": 2959,
  "\u2581ha": 2960,
  "wierz": 2961,
  "\u2581fort": 2962,
  "\u2581europ\u00e9ens": 2963,
  "\u2581cz\u0142onkowskiego": 2964,
  "niem": 2965,
  "yn": 2966,
  "\u2581pr\u00e9judice": 2967,
  "yle": 2968,
  "\u2581presque": 2969,
  "\u2581concern\u00e9s": 2970,
  "\u2581travaille": 2971,
  "\u2581moich": 2972,
  "owanych": 2973,
  "ich": 2974,
  "\u2581contact": 2975,
  "\u2581garantie": 2976,
  "krzy": 2977,
  "\u2581czuje": 2978,
  "\u2581br": 2979,
  "ps": 2980,
  "\u2581photo": 2981,
  "\u2581trakcie": 2982,
  "\u2581obywateli": 2983,
  "\u2581Decyzja": 2984,
  "\u2581dok\u0142adnie": 2985,
  "/2004": 2986,
  "\u2581caract\u00e8re": 2987,
  "bry": 2988,
  "\u2581lutte": 2989,
  "\u2581spok\u00f3j": 2990,
  "\u2581pocz\u0105tku": 2991,
  "\u2581voyage": 2992,
  "pu\u015bci": 2993,
  "\u2581[...]": 2994,
  "\u2581niez": 2995,
  "\u2581dost\u0119pne": 2996,
  "\u2581Em": 2997,
  "\u2581belle": 2998,
  "\u2581dur": 2999,
  "mierz": 3000,
  "\u2581appel": 3001,
  "\u2581otrzymuje": 3002,
  "pu": 3003,
  "\u2581uda": 3004,
  "\u2581adopt\u00e9": 3005,
  "\u2581paragraphes": 3006,
  "\u2581spo\u0142ecze\u0144stwa": 3007,
  "\u2581montre": 3008,
  "\u2581verre": 3009,
  "line": 3010,
  "\u2581publique": 3011,
  "ci\u0105g": 3012,
  "11": 3013,
  "\u2581wspania\u0142": 3014,
  "\u2581prochaine": 3015,
  "\u2581raisons": 3016,
  "\u2581pal": 3017,
  "\u2581bois": 3018,
  "\u2581Cal": 3019,
  "\u2581ca\u0142ym": 3020,
  "\u2581papier": 3021,
  "\u2581Czas": 3022,
  "\u2581Michael": 3023,
  "mawia": 3024,
  "\u2581Papa": 3025,
  "\u2581rapide": 3026,
  "\u2581patient": 3027,
  "\u00e9t\u00e9": 3028,
  "\u2581zasob\u00f3w": 3029,
  "\u2581kar": 3030,
  "\u2581Hol": 3031,
  "\u2581widzi": 3032,
  "ites": 3033,
  "\u2581humaine": 3034,
  "\u2581Puis": 3035,
  "\u2581wina": 3036,
  "rons": 3037,
  "\u2581existe": 3038,
  "\u2581pr\u00e9senter": 3039,
  "\u2581pierwszym": 3040,
  "\u2581alimentaires": 3041,
  "\u2581garder": 3042,
  "\u2581Ins": 3043,
  "\u00e9tat": 3044,
  "\u2581projekt": 3045,
  "\u2581szuka": 3046,
  "\u2581wyj\u0105tkiem": 3047,
  "esprit": 3048,
  "\u2581p\u00f3\u0142": 3049,
  "gr": 3050,
  "ire": 3051,
  "van": 3052,
  "\u2581Dar": 3053,
  "\u2581mission": 3054,
  "\u2581publicznych": 3055,
  "\u2581przyj\u0119cia": 3056,
  "\\": 3057,
  "\u2581wynosi": 3058,
  "\u2581sprawozdanie": 3059,
  "\u2581rubrique": 3060,
  "\u2581renforcer": 3061,
  "\u2581moc": 3062,
  "ani": 3063,
  "\u2581wymienionych": 3064,
  "\u2581Przez": 3065,
  "\u2581certain": 3066,
  "\u2581cz\u0142onkowskim": 3067,
  "16": 3068,
  "lle": 3069,
  "\u2581obligatoire": 3070,
  "\u258170": 3071,
  "\u2581Bu": 3072,
  "exploitation": 3073,
  "\u2581durable": 3074,
  "\u2581zamierza": 3075,
  "rap": 3076,
  "\u2581chapitre": 3077,
  "\u2581anti": 3078,
  "\u2581ko\u0144ca": 3079,
  "\u2581commerce": 3080,
  "\u258135": 3081,
  "\u2581wyniki": 3082,
  "\u2581(2)": 3083,
  "3,": 3084,
  "\u00e9tablissement": 3085,
  "\u2581\u00e9tat": 3086,
  "\u2581port": 3087,
  "\u2581wp\u0142ywu": 3088,
  "\u2581t\u00e9l\u00e9": 3089,
  "\u2581Kim": 3090,
  "\u2581f\u00eate": 3091,
  "\u2581sektorze": 3092,
  "\u2581voix": 3093,
  "\u2581mogli": 3094,
  "\u2581responsabilit\u00e9": 3095,
  "riez": 3096,
  "/2005": 3097,
  "hol": 3098,
  "\u2581[1]": 3099,
  "\u2581radio": 3100,
  "tem": 3101,
  "BI": 3102,
  "ica": 3103,
  "und": 3104,
  "\u2581Eco": 3105,
  "\u2581nowy": 3106,
  "\u2581por": 3107,
  "\u2581cat\u00e9gorie": 3108,
  "\u2581panu": 3109,
  "\u2581cr\u00e9er": 3110,
  "25": 3111,
  "\u2581przepisami": 3112,
  "\u2581Tro": 3113,
  "\u2581tytu\u0142u": 3114,
  "\u2581by\u0142oby": 3115,
  "ens": 3116,
  "\u2581Hu": 3117,
  "\u2581my\u015bl\u0119": 3118,
  "\u2581szczeblu": 3119,
  "\u2581commenc\u00e9": 3120,
  "\u2581m\u00e9thode": 3121,
  "trzy": 3122,
  "\u2581mod\u00e8le": 3123,
  "\u2581Europy": 3124,
  "ero": 3125,
  "\u2581dix": 3126,
  "\u2581caract\u00e9ristique": 3127,
  "\u2581travers": 3128,
  "\u2581moyenne": 3129,
  "\u2581pourra": 3130,
  "ute": 3131,
  "\u2581Q": 3132,
  "ns": 3133,
  "DE": 3134,
  "\u2581tour": 3135,
  "3/": 3136,
  "\u2581Niniejsz": 3137,
  "\u2581w\u0142adze": 3138,
  "Je": 3139,
  "\u2581Pa\u0144stwo": 3140,
  "\u2581Juste": 3141,
  "iques": 3142,
  "\u0142aby": 3143,
  "\u00e8me": 3144,
  "\u2581ca\u0142\u0105": 3145,
  "CH": 3146,
  "\u2581centrum": 3147,
  "ticuli\u00e8rement": 3148,
  "\u2581finansowe": 3149,
  "\u2581imm\u00e9diatement": 3150,
  "staw": 3151,
  "\u2581warunkiem": 3152,
  "wiedzi": 3153,
  "\u2581lutego": 3154,
  "\u2581Mor": 3155,
  "\u2581maj\u0105ce": 3156,
  "\u2581peine": 3157,
  "\u2581modifiant": 3158,
  "\u2581laiss\u00e9": 3159,
  "\u25817.": 3160,
  "nka": 3161,
  "\u2581Pre": 3162,
  "ore": 3163,
  "\u2581regarde": 3164,
  "\u2581mauvais": 3165,
  "ies": 3166,
  "\u2581ch": 3167,
  "\u2581czemu": 3168,
  "\u2581r\u00eave": 3169,
  "mor": 3170,
  "\u2581r\u00e9union": 3171,
  "\u2581um\u00f3w": 3172,
  "\u2581pratique": 3173,
  "\u2581Cha": 3174,
  "\u2581COMMISSION": 3175,
  "\u2581Pa\u0144stw": 3176,
  "\u2581cz\u0142onk\u00f3w": 3177,
  "czoraj": 3178,
  "\u2581szczeg\u00f3\u0142owe": 3179,
  "\u2581samego": 3180,
  "\u2581m\u00eames": 3181,
  "\u2581takiej": 3182,
  "\u2581rozumiem": 3183,
  "\u2581sprawa": 3184,
  "\u2581organisations": 3185,
  "01": 3186,
  "i\u0119k": 3187,
  "\u2581ch\u0142opc": 3188,
  "zywa": 3189,
  "\u2581Tra": 3190,
  "\u2581$": 3191,
  "uf": 3192,
  "\u2581tomber": 3193,
  "\u2581r\u00f3\u017cne": 3194,
  "\u2581importante": 3195,
  "owali": 3196,
  "\u2581wi\u0105\u017ce": 3197,
  "\u2581quantit\u00e9": 3198,
  "objectif": 3199,
  "\u00e2t": 3200,
  "\u2581hors": 3201,
  "\u2581clients": 3202,
  "\u2581n\u00e9cessit\u00e9": 3203,
  "nk": 3204,
  "osse": 3205,
  "\u2581institutions": 3206,
  "\u2581terminie": 3207,
  "\u2581arriver": 3208,
  "\u2581Cet": 3209,
  "\u2581Przed": 3210,
  "\u2581troisi\u00e8me": 3211,
  "exercice": 3212,
  "\u2581zmieni\u0107": 3213,
  "\u2581Pr\u00f3b": 3214,
  "\u2581projektu": 3215,
  "wali": 3216,
  "\u2581Sch": 3217,
  "jecha\u0107": 3218,
  "\u2581ponownie": 3219,
  "\u2581travailleurs": 3220,
  "ise": 3221,
  "\u2581brzmienie": 3222,
  "\u2581przyjaci\u00f3\u0142": 3223,
  "\u2581aime": 3224,
  "\u2581godziny": 3225,
  "\u2581commence": 3226,
  "\u2581inaczej": 3227,
  "\u2581aupr\u00e8s": 3228,
  "hu": 3229,
  "\u2581nast\u0119pnie": 3230,
  "\u258136": 3231,
  "\u2581pression": 3232,
  "tki": 3233,
  "\u2581continue": 3234,
  "\u2581drugi": 3235,
  "\u2581wzrost": 3236,
  "\u00f3\u017c": 3237,
  "\u2581tymi": 3238,
  "\u2581Wsp\u00f3lnot\u0119": 3239,
  "\u2581\u015brodka": 3240,
  "\u2581wszelkich": 3241,
  "iv": 3242,
  "\u2581\u00e9tabli": 3243,
  "win": 3244,
  "\u2581Depuis": 3245,
  "viens": 3246,
  "\u2581contrat": 3247,
  "\u2581europejskich": 3248,
  "\u2581condition": 3249,
  "\u2581rappelle": 3250,
  "\u2581warunkach": 3251,
  "mes": 3252,
  "\u2581Per": 3253,
  "\u2581mieli": 3254,
  "\u2581lot": 3255,
  "\u2581drogi": 3256,
  "\u2581derri\u00e8re": 3257,
  "DL": 3258,
  "\u2581vis\u00e9": 3259,
  "\u2581naszym": 3260,
  "winien": 3261,
  "bra\u0107": 3262,
  "\u2581Urz\u0119dowym": 3263,
  "\u2581dzia\u0142alno\u015b\u0107": 3264,
  "\u2581montrer": 3265,
  "\u2581Czego": 3266,
  "mail": 3267,
  "\u2581zapewnia": 3268,
  "\u2581tri": 3269,
  "\u2581COM": 3270,
  "\u258148": 3271,
  "\u2581mi\u0142": 3272,
  "\u2581przysz\u0142o\u015bci": 3273,
  "\u2581commencer": 3274,
  "\u2581produkt": 3275,
  "\u2581protocole": 3276,
  "\u2581\u00e9missions": 3277,
  "\u2581navires": 3278,
  "fe": 3279,
  "\u2581Voici": 3280,
  "ight": 3281,
  "\u2581modification": 3282,
  "\u2581Brukseli": 3283,
  "\u2581wsp\u00f3lnej": 3284,
  "\u2581simplement": 3285,
  "\u2581Avant": 3286,
  "\u2581ind\u00e9sirables": 3287,
  "kry": 3288,
  "\u2581ojca": 3289,
  "lf": 3290,
  "\u2581zostaje": 3291,
  "knij": 3292,
  "\u2581Enfin": 3293,
  "\u2581Lin": 3294,
  "8/": 3295,
  "alne": 3296,
  "\u2581przyjaciel": 3297,
  "\u2581\u00e9lev\u00e9": 3298,
  "\u2581continuer": 3299,
  "\u2581devenir": 3300,
  "\u2581wi\u0119kszej": 3301,
  "ug": 3302,
  "\u2581\u017cadne": 3303,
  "\u2581calme": 3304,
  "\u2581przemys\u0142u": 3305,
  "non": 3306,
  "bierz": 3307,
  "dni": 3308,
  "\u2581powiedz": 3309,
  "\u2581taille": 3310,
  "\u2581formie": 3311,
  "\u2581niekt\u00f3re": 3312,
  "\u2581travaux": 3313,
  "\u2581pa\u0144stwami": 3314,
  "\u2581trait\u00e9s": 3315,
  "\u2581przeznaczone": 3316,
  "lat": 3317,
  "\u2581d\u00e9terminer": 3318,
  "\u2581regarder": 3319,
  "autorisation": 3320,
  "\u2581relations": 3321,
  "\u2581salle": 3322,
  "kom": 3323,
  "\u0142by": 3324,
  "\u2581obszar\u00f3w": 3325,
  "\u2581pewni": 3326,
  "bin": 3327,
  "\u2581Albo": 3328,
  "\u2581sucre": 3329,
  "\u2581paix": 3330,
  "\u2581Gi": 3331,
  "\u2581organ\u00f3w": 3332,
  "\u2581#1": 3333,
  "\u2581Zjednoczone": 3334,
  "\u2581grup": 3335,
  "ants": 3336,
  "\u2581\u017cywno\u015bci": 3337,
  "\u2581finansowego": 3338,
  "\u258175": 3339,
  "n\u0119\u0142a": 3340,
  "\u2581stosunku": 3341,
  "\u2581langue": 3342,
  "\u2581przynajmniej": 3343,
  "40": 3344,
  "\u2581\u015bmie": 3345,
  "on\u0105": 3346,
  "\u2581d\u00e9cid\u00e9": 3347,
  "\u2581prison": 3348,
  "\u2581Fait": 3349,
  "\u2581chemin": 3350,
  "\u00e9cole": 3351,
  "pon": 3352,
  "\u2581ram": 3353,
  "\u2581modifi\u00e9e": 3354,
  "\u2581rol\u0119": 3355,
  "\u258110.": 3356,
  "\u2581inwestycji": 3357,
  "\u2581courant": 3358,
  "\u2581odpowiada": 3359,
  "\u2581lek": 3360,
  "\u2581Robi": 3361,
  "\u2581Peter": 3362,
  "\u2581chi": 3363,
  "\u2581li\u00e9es": 3364,
  "activit\u00e9": 3365,
  "\u2581Twoje": 3366,
  "60;": 3367,
  "\u2581da\u0107": 3368,
  "\u2581payer": 3369,
  "b\u00f3j": 3370,
  "\u2581sp\u00e9cifique": 3371,
  "\u2581actuellement": 3372,
  "\u2581annexe": 3373,
  "\u2581signifie": 3374,
  "\u2581potrafi": 3375,
  "tin": 3376,
  "iff": 3377,
  "\u2581bu": 3378,
  "ste": 3379,
  "\u2581ro": 3380,
  "\u2581permis": 3381,
  "innovation": 3382,
  "\u2581krajowym": 3383,
  "\u2581przewidziane": 3384,
  "\u2581zaczyna": 3385,
  "\u2581niveaux": 3386,
  "\u2581sauf": 3387,
  "gent": 3388,
  "\u2581Jednak\u017ce": 3389,
  "Ch": 3390,
  "\u2581am\u00e9liorer": 3391,
  "\u2581g\u0142owy": 3392,
  "\u2581szal": 3393,
  "las": 3394,
  "\u2581Quelqu": 3395,
  "\u2581disponible": 3396,
  "tent": 3397,
  "\u0142e": 3398,
  "\u2581liczba": 3399,
  "\u2581bro\u0144": 3400,
  "\u2581Voir": 3401,
  "\u2581internationale": 3402,
  "\u2581durant": 3403,
  "\u2581pourraient": 3404,
  "\u2581comp\u00e9tences": 3405,
  "\u2581ca\u0142e": 3406,
  "\u2581r\u00e9pondre": 3407,
  "\u2581suivre": 3408,
  "\u00e9n": 3409,
  "\u2581zde": 3410,
  "\u2581Deux": 3411,
  "\u2581wniosk\u00f3w": 3412,
  "\u2581beau": 3413,
  "\u2581B\u0119d\u0119": 3414,
  "\u2581Ab": 3415,
  "\u2581konkurencji": 3416,
  "red": 3417,
  "\u2581conformes": 3418,
  "dam": 3419,
  "tter": 3420,
  "teur": 3421,
  "13": 3422,
  "tek": 3423,
  "\u2581pieni\u0119dzy": 3424,
  "\u2581affaire": 3425,
  "\u2581stopniu": 3426,
  "\u2581wymogi": 3427,
  "\u2581Super": 3428,
  "ata": 3429,
  "c\u00f3w": 3430,
  "\u2581znowu": 3431,
  "dzi\u0142": 3432,
  "\u2581fakt": 3433,
  "\u2581statut": 3434,
  "\u2581bout": 3435,
  "\u2581projekt\u00f3w": 3436,
  "\u2581[2]": 3437,
  "ig": 3438,
  "pas": 3439,
  "\u2581podr\u00f3\u017c": 3440,
  "\u2581kontek\u015bcie": 3441,
  "lui": 3442,
  "\u2581double": 3443,
  "\u2581contr\u00f4les": 3444,
  "\u2581\u00e9tablissant": 3445,
  "skie": 3446,
  "try": 3447,
  "\u2581destin\u00e9s": 3448,
  "\u2581poszczeg\u00f3lnych": 3449,
  "\u2581rapports": 3450,
  "\u2581sup\u00e9rieur": 3451,
  "sp": 3452,
  "\u2581stanowi\u0105": 3453,
  "\u2581wprowadza": 3454,
  "\u2581secteurs": 3455,
  "sion": 3456,
  "\u2581wiadomo\u015bci": 3457,
  "\u00e9r": 3458,
  "\u2581krajowe": 3459,
  "\u2581petits": 3460,
  "ip": 3461,
  "\u2581lesquels": 3462,
  "\u2581rapidement": 3463,
  "32": 3464,
  "\u2581lu": 3465,
  "\u2581Val": 3466,
  "nki": 3467,
  "bar": 3468,
  "\u2581fr": 3469,
  "\u2581technologii": 3470,
  "adoption": 3471,
  "\u25811).": 3472,
  "\u2581kom": 3473,
  "\u2581r\u00e9serve": 3474,
  "\u2581sup\u00e9rieure": 3475,
  "tis": 3476,
  "\u2581seconde": 3477,
  "\u2581procesu": 3478,
  "\u2581jutro": 3479,
  "\u25818.": 3480,
  "\u2581Her": 3481,
  "\u2581offre": 3482,
  "\u2581punktu": 3483,
  "\u2581rz\u0105d": 3484,
  "\u2581Selon": 3485,
  "\u2581parmi": 3486,
  "\u2581lesquelles": 3487,
  "\u2581exactement": 3488,
  "\u2581wstrzykiwa": 3489,
  "\u2581kr": 3490,
  "isme": 3491,
  "\u2581wymiany": 3492,
  "\u2581widzenia": 3493,
  "\u2581connaissance": 3494,
  "\u2581dzia\u0142anie": 3495,
  "9/": 3496,
  "\u2581przyw\u00f3z": 3497,
  "kt": 3498,
  "ust": 3499,
  "6/": 3500,
  "\u2581grave": 3501,
  "\u2581urz\u0105dze\u0144": 3502,
  "\u2581essay\u00e9": 3503,
  "17": 3504,
  "\u2581active": 3505,
  "\u2581Pami\u0119ta": 3506,
  "\u2581st": 3507,
  "\u2581jedna": 3508,
  "ett": 3509,
  "\u2581Ka\u017cdy": 3510,
  "\u2581krajach": 3511,
  "\u2581mode": 3512,
  "\u2581wymog\u00f3w": 3513,
  "\u2581Autres": 3514,
  "\u2581dites": 3515,
  "\u2581capital": 3516,
  "\u2581conna\u00eetre": 3517,
  "\u2581wykonania": 3518,
  "\u2581augmentation": 3519,
  "chod\u017a": 3520,
  "\u2581pouvait": 3521,
  "\u2581analizy": 3522,
  "\u2581obraz": 3523,
  "\u2581financi\u00e8res": 3524,
  "\u2581m\u00e9thodes": 3525,
  "AT": 3526,
  "\u2581chacun": 3527,
  "\u2581do\u015b\u0107": 3528,
  "oba": 3529,
  "\u2581kol": 3530,
  "\u2581wynik\u00f3w": 3531,
  "\u2581nast\u0119puj\u0105cych": 3532,
  "\u2581investissements": 3533,
  "\u2581Cependant": 3534,
  "\u2581devait": 3535,
  "let": 3536,
  "\u2581Park": 3537,
  "\u2581li": 3538,
  "\u2581sto": 3539,
  "\u2581nadzoru": 3540,
  "\u2581tirer": 3541,
  "\u2581problemy": 3542,
  "04": 3543,
  "4/": 3544,
  "\u2581wygra": 3545,
  "\u2581proces": 3546,
  "\u2581prie": 3547,
  "\u2581cele": 3548,
  "\u2581ferme": 3549,
  "\u2581pr\u00e9sence": 3550,
  "d\u017acie": 3551,
  "zw\u00f3l": 3552,
  "\u2581150": 3553,
  "\u2581pa\u0144stwie": 3554,
  "\u2581Internet": 3555,
  "r\u0119cz": 3556,
  "\u2581m\u00f3wi\u0119": 3557,
  "\u2581George": 3558,
  "ib": 3559,
  "\u2581international": 3560,
  "\u2581pens\u00e9": 3561,
  "\u258100": 3562,
  "5/": 3563,
  "\u2581substance": 3564,
  "cz\u0119": 3565,
  "\u2581s\u0142ucha": 3566,
  "\u2581s\u00e9rie": 3567,
  "zo": 3568,
  "\u2581Ku": 3569,
  "\u2581procedur": 3570,
  "\u2581charakter": 3571,
  "\u258101": 3572,
  "\u2581prowadzi": 3573,
  "v\u00e9": 3574,
  "\u2581zdolno\u015bci": 3575,
  "18": 3576,
  "epi": 3577,
  "tes": 3578,
  "\u2581cul": 3579,
  "\u258133": 3580,
  "bor": 3581,
  "\u2581Afin": 3582,
  "90": 3583,
  "\u2581Rozumiem": 3584,
  "ieux": 3585,
  "\u2581pensez": 3586,
  "tw\u00f3r": 3587,
  "\u2581davantage": 3588,
  "\u2581souviens": 3589,
  "\u2581dotycz\u0105cego": 3590,
  "\u2581choroby": 3591,
  "mm": 3592,
  "examen": 3593,
  "log": 3594,
  "u\u017cy": 3595,
  "ast": 3596,
  "7/": 3597,
  "\u2581Republiki": 3598,
  "06": 3599,
  "\u00e9ro": 3600,
  "\u2581d\u00e9s": 3601,
  "\u2581vid\u00e9o": 3602,
  "\u2581bis": 3603,
  "\u2581fond": 3604,
  "wr\u00f3ci": 3605,
  "\u2581podoba": 3606,
  "mp": 3607,
  "kar": 3608,
  "\u2581mandat": 3609,
  "\u2581constitue": 3610,
  "pla": 3611,
  "kach": 3612,
  "\u2581efforts": 3613,
  "\u2581devoir": 3614,
  "\u2581metody": 3615,
  "\u2581Ser": 3616,
  "\u2581sois": 3617,
  "\u2581clair": 3618,
  "\u2581gentil": 3619,
  "\u2581obszarze": 3620,
  "Agence": 3621,
  "ura": 3622,
  "\u2581population": 3623,
  "\u2581kogo": 3624,
  "\u2581Chodzi": 3625,
  "\u2581contexte": 3626,
  "\u2581certificat": 3627,
  "\u2581istotne": 3628,
  "dzia\u0142a": 3629,
  "\u258150%": 3630,
  "\u2581plaisir": 3631,
  "\u2581lettre": 3632,
  "dal": 3633,
  "\u2581agricoles": 3634,
  "czk\u0119": 3635,
  "\u2581remplac\u00e9": 3636,
  "\u2581porter": 3637,
  "assurance": 3638,
  "\u2581approche": 3639,
  "\u2581zobowi\u0105za\u0144": 3640,
  "cent": 3641,
  "\u25819.": 3642,
  "europa": 3643,
  "ni\u0119": 3644,
  "tar": 3645,
  "ienne": 3646,
  "\u2581relevant": 3647,
  "\u2581wys": 3648,
  "\u2581Patrz": 3649,
  "\u2581modifications": 3650,
  "kr\u0119": 3651,
  "zel": 3652,
  "pan": 3653,
  "owymi": 3654,
  "\u2581sort": 3655,
  "\u2581min": 3656,
  "23": 3657,
  "\u2581pi\u00e8ces": 3658,
  "\u2581tak\u0105": 3659,
  "\u2581Kat": 3660,
  "\u2581Conform\u00e9ment": 3661,
  "abym": 3662,
  "\u2581post": 3663,
  "\u2581Cor": 3664,
  "los": 3665,
  "\u2581direction": 3666,
  "\u2581Jednak": 3667,
  "\u2581d\u00e9part": 3668,
  "\u2581dossier": 3669,
  "\u2581[2],": 3670,
  "\u2581brat": 3671,
  "\u2581Kr": 3672,
  "rat": 3673,
  "\u2581Parlament": 3674,
  "\u2581\u017cona": 3675,
  "\u2581acc\u00e8s": 3676,
  "\u2581lekarza": 3677,
  "\u0142oby": 3678,
  "\u2581cherche": 3679,
  "\u2581allait": 3680,
  "\u00e9ri": 3681,
  "\u2581braku": 3682,
  "ling": 3683,
  "np": 3684,
  "\u2581Nord": 3685,
  "\u2581coin": 3686,
  "\u2581entreprise": 3687,
  "\u2581czynno\u015bci": 3688,
  "\u2581zakres": 3689,
  "\u2581rentrer": 3690,
  "\u2581g\u0142os": 3691,
  "\u2581j\u0119zyku": 3692,
  "\u2581mia\u0142o": 3693,
  "\u2581entend": 3694,
  "spo": 3695,
  "\u2581(1": 3696,
  "sz\u0105": 3697,
  "\u2581kobiety": 3698,
  "\u2581wiemy": 3699,
  "pad\u0142": 3700,
  "av": 3701,
  "ash": 3702,
  "kre": 3703,
  "\u2581Sk": 3704,
  "\u2581Wil": 3705,
  "ret": 3706,
  "\u2581pre": 3707,
  "\u2581minute": 3708,
  "@": 3709,
  "\u2581bonnes": 3710,
  "\u2581partenaires": 3711,
  "\u2581trzyma": 3712,
  "nic": 3713,
  "\u2581operacji": 3714,
  "\u2581og\u00f3le": 3715,
  "\u2581obu": 3716,
  "\u2581visite": 3717,
  "\u2581urz\u0105dzenia": 3718,
  "IT": 3719,
  "lie": 3720,
  "\u2581limites": 3721,
  "pal": 3722,
  "\u2581s\u00fbre": 3723,
  "\u2581Naj": 3724,
  "\u2581Laissez": 3725,
  "\u2581lait": 3726,
  "\u2581amie": 3727,
  "oli": 3728,
  "ft": 3729,
  "\u00e9conomie": 3730,
  "\u2581gdy\u017c": 3731,
  "\u2581tygodni": 3732,
  "\u2581cou": 3733,
  "\u2581wiedzy": 3734,
  "\u2581DO": 3735,
  "\u2581WE": 3736,
  "\u2581d\u00e9chets": 3737,
  "\u2581heureux": 3738,
  "\u2581maszyn": 3739,
  "hcia\u0142bym": 3740,
  "\u2581retard": 3741,
  "\u2581parfois": 3742,
  "\u2581photos": 3743,
  "d\u017c": 3744,
  "g\u00e9n": 3745,
  "\u2581pot": 3746,
  "\u00a9": 3747,
  "\u2581Min": 3748,
  "\u2581gdzie\u015b": 3749,
  "\u2581zdj\u0119cia": 3750,
  "\u0104": 3751,
  "\u2581podmiot\u00f3w": 3752,
  "\u2581broni": 3753,
  "\u2581KOMISJA": 3754,
  "\u2581\u00e9valuation": 3755,
  "\u2581derni\u00e8res": 3756,
  "histoire": 3757,
  "isation": 3758,
  "\u2581ustanawiaj\u0105ce": 3759,
  "oc": 3760,
  "uj\u0105ce": 3761,
  "\u00een": 3762,
  "\u2581haute": 3763,
  "\u2581indiqu\u00e9": 3764,
  "\u2581recours": 3765,
  "oyez": 3766,
  "\u2581volume": 3767,
  "\u2581\u017car": 3768,
  "ric": 3769,
  "\u2581caf\u00e9": 3770,
  "\u2581Mari": 3771,
  "\u2581contraire": 3772,
  "\u2581por\u00f3wnaniu": 3773,
  "03": 3774,
  "ateurs": 3775,
  "nymi": 3776,
  "\u2581Pie": 3777,
  "\u2581technologie": 3778,
  "gin": 3779,
  "\u2581fonctions": 3780,
  "\u0142ych": 3781,
  "\u2581prawnych": 3782,
  "kin": 3783,
  "pl": 3784,
  "-2": 3785,
  "\u2581progr\u00e8s": 3786,
  "\u2581ostatnich": 3787,
  "\u2581d\u00e9test": 3788,
  "stanie": 3789,
  "owaniu": 3790,
  "\u2581faute": 3791,
  "\u2581\u00e9gard": 3792,
  "\u2581\u00e9tude": 3793,
  "\u2581Combi": 3794,
  "\u2581voyez": 3795,
  "\u2581pozwala": 3796,
  "pp": 3797,
  "\u2581adres": 3798,
  "\u2581osi\u0105gni\u0119cia": 3799,
  "importance": 3800,
  "rog": 3801,
  "\u2581voit": 3802,
  "\u2581sko\u0144czy": 3803,
  "nicy": 3804,
  "sia": 3805,
  "\u2581meurtre": 3806,
  "\u2581Jezusa": 3807,
  "\u2581Twoj": 3808,
  "\u2581r\u00e9alisation": 3809,
  "\u2581convention": 3810,
  "45": 3811,
  "\u2581by\u015b": 3812,
  "\u2581r\u00e9ception": 3813,
  "\u2581int\u00e9r\u00eats": 3814,
  "\u2581ki": 3815,
  "\u2581propositions": 3816,
  "\u2581Trzyma": 3817,
  "\u2581veulent": 3818,
  "\u2581D\u00e9cision": 3819,
  "\u2581v\u00e9rifier": 3820,
  "\u2581dodatkowych": 3821,
  "exclusion": 3822,
  "\u2581sauver": 3823,
  "ord": 3824,
  "pr\u00f3buj": 3825,
  "\u2581Lub": 3826,
  "ect": 3827,
  "\u2581wr\u00f3ci\u0142": 3828,
  "\u2581Ti": 3829,
  "offre": 3830,
  "\u2581<": 3831,
  "\u2581derniers": 3832,
  "\u2581USA": 3833,
  "\u2581ju": 3834,
  "sk\u0105": 3835,
  "\u2581faisait": 3836,
  "entend": 3837,
  "\u2581fruits": 3838,
  "\u2581Chi": 3839,
  "\u2581pr\u00eats": 3840,
  "\u2581peau": 3841,
  "EEE": 3842,
  "\u2581change": 3843,
  "\u2581quantit\u00e9s": 3844,
  "\u2581stron\u0119": 3845,
  "\u2581doktor": 3846,
  "\u2581perdre": 3847,
  "\u2581classe": 3848,
  "\u2581znacznie": 3849,
  "\u00e9change": 3850,
  "\u25817,": 3851,
  "\u2581soutenir": 3852,
  "21": 3853,
  "\u2581materia\u0142\u00f3w": 3854,
  "\u2581bud\u017cetu": 3855,
  "\u2581zwi\u0119kszenie": 3856,
  "Co": 3857,
  "\u2581udzia\u0142u": 3858,
  "szuka": 3859,
  "\u2581obtenir": 3860,
  "\u2581niech": 3861,
  "king": 3862,
  "\u2581libert\u00e9": 3863,
  "\u2581roi": 3864,
  "\u2581contenu": 3865,
  "cul": 3866,
  "\u2581rynek": 3867,
  "anta": 3868,
  "wol": 3869,
  "\u2581arr\u00eater": 3870,
  "\u2581planu": 3871,
  "\u2581court": 3872,
  "\u2581autour": 3873,
  "\u2581trans": 3874,
  "\u2581sortie": 3875,
  "acje": 3876,
  "\u2581wykorzystania": 3877,
  "car": 3878,
  "\u2581przede": 3879,
  "\u2581comprend": 3880,
  "\u2581grands": 3881,
  "\u2581centrale": 3882,
  "\u2581maj\u0105cych": 3883,
  "\u2581Vas": 3884,
  "aine": 3885,
  "\u2581Seigneur": 3886,
  "08": 3887,
  "\u2581appris": 3888,
  "cz\u0105": 3889,
  "\u2581pacjenta": 3890,
  "Uni": 3891,
  "\u2581pire": 3892,
  "\u2581stan": 3893,
  "LL": 3894,
  "\u2581pi\u0119\u0107": 3895,
  "\u2581construction": 3896,
  "\u2581Brak": 3897,
  "Le": 3898,
  "\u2581\u0142\u00f3\u017ck": 3899,
  "\u2581przyjmuje": 3900,
  "\u2581rano": 3901,
  "utaj": 3902,
  "\u2581ca\u0142kowicie": 3903,
  "ations": 3904,
  "\u2581ANNEXE": 3905,
  "\u2581Jean": 3906,
  "\u2581europejskiej": 3907,
  "bre": 3908,
  "\u2581action": 3909,
  "bli": 3910,
  "\u2581statk\u00f3w": 3911,
  "cj\u0119": 3912,
  "\u2581accords": 3913,
  "\u0105c": 3914,
  "\u2581ulic": 3915,
  "\u017ca": 3916,
  "\u2581biens": 3917,
  "\u2581podstawowych": 3918,
  "arz": 3919,
  "ili": 3920,
  "\u2581analyse": 3921,
  "99": 3922,
  "og": 3923,
  "\u2581ro\u015blin": 3924,
  "\u2581entrer": 3925,
  "\u2581\u00e9nerg\u00e9tique": 3926,
  "iu": 3927,
  "\u2581s\u0105dzi": 3928,
  "wod": 3929,
  "\u2581placebo": 3930,
  "biera": 3931,
  "\u2581Toutes": 3932,
  "ary": 3933,
  "\u2581wsparcie": 3934,
  "\u2581dodatkowe": 3935,
  "\u2581R\u00c8GLEMENT": 3936,
  "\u2581source": 3937,
  "\u2581Ver": 3938,
  "\u2581utilisant": 3939,
  "\u2581morts": 3940,
  "\u2581petites": 3941,
  "\u2581York": 3942,
  "\u2581chang\u00e9": 3943,
  "\u2581rozumie": 3944,
  "\u2581fut": 3945,
  "\u2581hier": 3946,
  "\u2581appelle": 3947,
  "\u2581bras": 3948,
  "niki": 3949,
  "\u2581coordination": 3950,
  "\u2581pyta": 3951,
  "berg": 3952,
  "\u2581firmy": 3953,
  "\u2581clairement": 3954,
  "\u2581patrz": 3955,
  "\u2581sociaux": 3956,
  "now": 3957,
  "\u2581osoba": 3958,
  "\u2581principal": 3959,
  "\u2581r\u00e9glementation": 3960,
  "\u2581montr\u00e9": 3961,
  "\u2581\u017cadnego": 3962,
  "\u2581chien": 3963,
  "aura": 3964,
  "\u2581Bur": 3965,
  "\u2581Sporz\u0105dzono": 3966,
  "80": 3967,
  "\u2581znalaz\u0142": 3968,
  "\u2581dispositif": 3969,
  "\u2581actes": 3970,
  "\u258139": 3971,
  "\u2581Bank": 3972,
  "t\u0119": 3973,
  "\u2581croyai": 3974,
  "\u2581voulu": 3975,
  "\u2581w\u0105troby": 3976,
  "\u2581\u017ale": 3977,
  "aj\u0105": 3978,
  "eb": 3979,
  "\u2581\u015bmier\u0107": 3980,
  "tique": 3981,
  "cer": 3982,
  "\u2581t\u00f4t": 3983,
  "AN": 3984,
  "stwo": 3985,
  "\u2581Ludzie": 3986,
  "inqui\u00e8te": 3987,
  "\u2581us": 3988,
  "gue": 3989,
  "ame": 3990,
  "\u2581estime": 3991,
  "\u2581totale": 3992,
  "\u2581(3)": 3993,
  "\u2581wnioski": 3994,
  "\u2581\u00e9tablissements": 3995,
  "\u2581dollars": 3996,
  "\u2581Plan": 3997,
  "\u2581chc\u0105": 3998,
  "dd": 3999,
  "\u2581Th": 4000,
  "ront": 4001,
  "\u00c9coute": 4002,
  "\u2581\u00e9viter": 4003,
  "\u2581wr\u00f3ci\u0107": 4004,
  "onych": 4005,
  "\u2581Dzie\u0144": 4006,
  "\u2581\u20ac": 4007,
  "\u2581Faites": 4008,
  "\u2581suivante": 4009,
  "\u2581s\u0142ysza\u0142": 4010,
  "\u2581dalsze": 4011,
  "wer": 4012,
  "dre": 4013,
  "\u2581large": 4014,
  "\u2581mots": 4015,
  "lop": 4016,
  "\u2581Aucune": 4017,
  "\u2581ograniczenia": 4018,
  "\u2581oparciu": 4019,
  "\u2581natychmiast": 4020,
  "\u2581r\u00e9solution": 4021,
  "\u2581maximale": 4022,
  "sam": 4023,
  "\u2581peuple": 4024,
  "\u2581ran": 4025,
  "\u2581visage": 4026,
  "ari": 4027,
  "\u2581wielko\u015bci": 4028,
  "\u258110%": 4029,
  "\u2581fichiers": 4030,
  "\u2581lire": 4031,
  "Na": 4032,
  "To": 4033,
  "\u2581publiques": 4034,
  "\u2581professionnelle": 4035,
  "ott": 4036,
  "\u2581pytania": 4037,
  "\u2581stara": 4038,
  "\u258137": 4039,
  "\u2581cukru": 4040,
  "\u2581mor": 4041,
  "\u2581siedzi": 4042,
  "\u2581Pr": 4043,
  "\u2581pozna\u0107": 4044,
  "twor": 4045,
  "\u2581gospodarki": 4046,
  "Za": 4047,
  "\u2581Angel": 4048,
  "\u2581objectif": 4049,
  "\u2581wydatk\u00f3w": 4050,
  "\u2581capacit\u00e9s": 4051,
  "\u2581contribution": 4052,
  "\u2581serai": 4053,
  "gn": 4054,
  "sob": 4055,
  "r\u00f4le": 4056,
  "\u2581Euratom": 4057,
  "\u2581bient\u00f4t": 4058,
  "31": 4059,
  "\u00eat": 4060,
  "\u2581statistiques": 4061,
  "\u2581wsp\u00f3lne": 4062,
  "EL": 4063,
  "\u2581vis": 4064,
  "ser": 4065,
  "\u2581activit\u00e9": 4066,
  "dze": 4067,
  "\u2581posiada": 4068,
  "dyna": 4069,
  "\u2581Inne": 4070,
  "\u2581problem\u00f3w": 4071,
  "\u2581envie": 4072,
  "\u2581widz\u0119": 4073,
  "\u2581notification": 4074,
  "\u2581ogl\u0105da": 4075,
  "\u2581gr": 4076,
  "\u2581erreur": 4077,
  "uff": 4078,
  "affaire": 4079,
  "\u2581sprzeda": 4080,
  "\u2581cztery": 4081,
  "IN": 4082,
  "\u2581conclusions": 4083,
  "\u2581gospodarczego": 4084,
  "\u2581auto": 4085,
  "\u2581Sara": 4086,
  "rza": 4087,
  "\u2581zapewnienie": 4088,
  "\u2581zmienione": 4089,
  "\u2581zakresu": 4090,
  "\u2581comprim\u00e9s": 4091,
  "\u2581Aux": 4092,
  "ador": 4093,
  "\u2581ustanawiaj\u0105cy": 4094,
  "\u2581niedo": 4095,
  "euros": 4096,
  "appartement": 4097,
  "\u2581zobowi\u0105zania": 4098,
  "\u2581ZA\u0141\u0104CZNIK": 4099,
  "\u2581m\u00f3wi\u0105c": 4100,
  "\u2581promouvoir": 4101,
  "tte": 4102,
  "75": 4103,
  "rel": 4104,
  "arr\u00eater": 4105,
  "k\u0142": 4106,
  "\u2581Tri": 4107,
  "ery": 4108,
  "\u2581technologies": 4109,
  "29": 4110,
  "bior": 4111,
  "\u00e8s": 4112,
  "\u2581(...)": 4113,
  "\u2581pracuje": 4114,
  "\u2581bio": 4115,
  "\u2581attendre": 4116,
  "\u2581kryteria": 4117,
  "\u258138": 4118,
  "\u2581konsument\u00f3w": 4119,
  "fu": 4120,
  "\u2581sta\u0107": 4121,
  "\u2581zapomni": 4122,
  "\u2581coeur": 4123,
  "\u2581pouvoirs": 4124,
  "\u2581Ad": 4125,
  "\u2581klucz": 4126,
  "\u2581pojazdu": 4127,
  "\u00e8ne": 4128,
  "\u2581przewodnicz\u0105cy": 4129,
  "\u2581circulation": 4130,
  "\u2581kierunku": 4131,
  "acte": 4132,
  "60": 4133,
  "24": 4134,
  "\u2581jeux": 4135,
  "\u258134": 4136,
  "RO": 4137,
  "\u2581szans": 4138,
  "\u2581wyboru": 4139,
  "\u2581stanu": 4140,
  "\u2581wasze": 4141,
  "95": 4142,
  "\u2581gratuit": 4143,
  "Ma": 4144,
  "\u2581Mo\u017cna": 4145,
  "\u2581servir": 4146,
  "\u2581pi\u0119kn": 4147,
  "\u2581jednocze\u015bnie": 4148,
  "\u2581suffit": 4149,
  "cal": 4150,
  "\u2581minimum": 4151,
  "ria": 4152,
  "i\u00e8re": 4153,
  "\u2581moteur": 4154,
  "\u2581transfert": 4155,
  "\u2581Ge": 4156,
  "\u2581wprowadzenia": 4157,
  "70": 4158,
  "ciu": 4159,
  "\u2581g\u0142\u00f3wnie": 4160,
  "ss": 4161,
  "\u2581pierwszego": 4162,
  "ables": 4163,
  "\u2581mondiale": 4164,
  "\u2581dotycz\u0105cy": 4165,
  "fil": 4166,
  "\u2581machines": 4167,
  "\u2581propose": 4168,
  "\u2581similaires": 4169,
  "\u0142\u00f3\u017c": 4170,
  "\u2581Madame": 4171,
  "\u2581Mac": 4172,
  "\u2581opini\u0119": 4173,
  "\u2581samoch\u00f3d": 4174,
  "\u2581Znajd": 4175,
  "\u2581surtout": 4176,
  "\u2581wy\u0142\u0105czeniem": 4177,
  "\u2581daje": 4178,
  "ville": 4179,
  "ch\u0119": 4180,
  "\u2581nombreuses": 4181,
  "\u2581Kur": 4182,
  "\u2581Moje": 4183,
  "\u2581cha": 4184,
  "avons": 4185,
  "\u2581cy": 4186,
  "\u2581nasz\u0105": 4187,
  "\u2581badaniach": 4188,
  "\u2581sklep": 4189,
  "\u2581For": 4190,
  "\u2581st\u0119\u017cenia": 4191,
  "cor": 4192,
  "\u2581zale\u017cno\u015bci": 4193,
  "vie": 4194,
  "\u2581Op": 4195,
  "\u2581Powinn": 4196,
  "utiliser": 4197,
  "\u2581gagner": 4198,
  "\u2581Tom": 4199,
  "\u2581mi\u0142o\u015b\u0107": 4200,
  "ble": 4201,
  "\u2581pr\u00e9sent\u00e9": 4202,
  "\u2581np": 4203,
  "\u2581Mag": 4204,
  "\u2581Pal": 4205,
  "star": 4206,
  "\u2581blisko": 4207,
  "\u2581Mu": 4208,
  "\u2581europejskiego": 4209,
  "\u2581\u00b0": 4210,
  "\u258165": 4211,
  "ces": 4212,
  "\u2581publicznego": 4213,
  "del": 4214,
  "\u2581twarz": 4215,
  "\u2581samej": 4216,
  "\u2581statku": 4217,
  "\u2581Cr": 4218,
  "\u2581\u00e9tiez": 4219,
  "\u2581essais": 4220,
  "\u2581actifs": 4221,
  "\u2581envoy\u00e9": 4222,
  "\u2581transakcji": 4223,
  "\u2581administration": 4224,
  "\"),": 4225,
  "\u00e9ducation": 4226,
  "\u2581essayer": 4227,
  "\u2581wzi\u0105\u0107": 4228,
  "ive": 4229,
  "wil": 4230,
  "\u2581momencie": 4231,
  "\u2581ar": 4232,
  "\u2581szko\u0142y": 4233,
  "\u2581jaka": 4234,
  "\u2581balle": 4235,
  "\u2581stosownych": 4236,
  "0000": 4237,
  "\u2581relation": 4238,
  "\u2581Gre": 4239,
  "bal": 4240,
  "\u2581toutefois": 4241,
  "\u00e7": 4242,
  "\u2581d\u00e9finition": 4243,
  "\u2581humains": 4244,
  "burg": 4245,
  "o\u00f9": 4246,
  "ward": 4247,
  "\u2581cm": 4248,
  "\u2581blanc": 4249,
  "\u2581ceci": 4250,
  "ote": 4251,
  "t\u0105": 4252,
  "avenir": 4253,
  "\u2581kr\u00f3l": 4254,
  "\u2581monitorowania": 4255,
  "czu": 4256,
  "jazd": 4257,
  "\u2581r\u00e9seaux": 4258,
  "\u2581szef": 4259,
  "\u2581Unia": 4260,
  "\u2581Reste": 4261,
  "\u25811:": 4262,
  "cji": 4263,
  "\u2581zale\u017cy": 4264,
  "\u2581\u00e9changes": 4265,
  "\u2581plik\u00f3w": 4266,
  "\u2581wymienione": 4267,
  "je\u017cd\u017ca": 4268,
  "\u2581table": 4269,
  "q": 4270,
  "absence": 4271,
  "46": 4272,
  "j\u0105cego": 4273,
  "\u2581certificats": 4274,
  "\u2581Podczas": 4275,
  "\u2581suppose": 4276,
  "\u2581matka": 4277,
  "22": 4278,
  "\u2581ouvert": 4279,
  "\u2581instrument\u00f3w": 4280,
  "://": 4281,
  "\u2581\u00c9t": 4282,
  "\u2581Oto": 4283,
  "\u2581Peu": 4284,
  "\u2581du\u017ce": 4285,
  "tr": 4286,
  "\u2581instrument": 4287,
  "\u2581poj\u0119cia": 4288,
  "\u2581milieu": 4289,
  "\u2581jasne": 4290,
  "\").": 4291,
  "\u2581poste": 4292,
  "tage": 4293,
  "\u2581przewiduje": 4294,
  "\u2581dostaw": 4295,
  "\u2581Met": 4296,
  "\u2581wsp\u00f3lnotowego": 4297,
  "\u2581Poza": 4298,
  "TA": 4299,
  "\u2581plik": 4300,
  "\u2581esp\u00e8ces": 4301,
  "\u2581Porozumienia": 4302,
  "trze": 4303,
  "\u2581jakiej": 4304,
  "EUR": 4305,
  "\u2581grandes": 4306,
  "\u2581atteindre": 4307,
  "iers": 4308,
  "\u2581cat\u00e9gories": 4309,
  "\u2581widzie\u0107": 4310,
  "\u2581Pren": 4311,
  "35": 4312,
  "\u2581utilisateurs": 4313,
  "ice": 4314,
  "\u2581sekcji": 4315,
  "\u2581inicjatywy": 4316,
  "\u2581limite": 4317,
  "rem": 4318,
  "ety": 4319,
  "\u2581utilis\u00e9e": 4320,
  "\u2581provenance": 4321,
  "-1": 4322,
  "eg": 4323,
  "\u2581okre\u015bla": 4324,
  "\u2581dob\u0119": 4325,
  "\u2581pozosta\u0142ych": 4326,
  "s\u0142ug": 4327,
  "\u2581dys": 4328,
  "gli": 4329,
  "\u2581r\u00e9alit\u00e9": 4330,
  "pre": 4331,
  "\u2581alimentaire": 4332,
  "\u2581longue": 4333,
  "appel": 4334,
  "ory": 4335,
  "\u2581drugie": 4336,
  "\u2581repr\u00e9sente": 4337,
  "\u2581consultation": 4338,
  "\u2581pewne": 4339,
  "\u2581Data": 4340,
  "\u2581calcul": 4341,
  "\u2581rezerw": 4342,
  "por": 4343,
  "\u2581Pen": 4344,
  "\u2581quant": 4345,
  "\u2581powierzchni": 4346,
  "La": 4347,
  "\u2581phase": 4348,
  "ryt": 4349,
  "ture": 4350,
  "\u2581u\u017cywa": 4351,
  "\u2581cuisine": 4352,
  "\u2581\u00e9lectronique": 4353,
  "ox": 4354,
  "\u2581Chine": 4355,
  "\u2581dokument\u00f3w": 4356,
  "\u2581mie\u015bcie": 4357,
  "\u2581ono": 4358,
  "\u2581eaux": 4359,
  "\";": 4360,
  "yr": 4361,
  "\u2581preparatu": 4362,
  "bl": 4363,
  "\u2581same": 4364,
  "\u2581\u0141a": 4365,
  "czy\u0107": 4366,
  "\u2581Prac": 4367,
  "\u2581PO": 4368,
  "\u258164": 4369,
  "\u2581retrouver": 4370,
  "\u2581touche": 4371,
  "\u2581tygodniu": 4372,
  "\u2581pi\u00e8ce": 4373,
  "\u2581Szuka": 4374,
  "\u2581Fin": 4375,
  "espace": 4376,
  "\u2581\u00e9coute": 4377,
  "\u2581joli": 4378,
  "\u2581forte": 4379,
  "nc": 4380,
  "alny": 4381,
  "\u2581ruchu": 4382,
  "\u2581dialogue": 4383,
  "k\u0142ad": 4384,
  "czny": 4385,
  "\u2581Cap": 4386,
  "\u2581Ber": 4387,
  "\u258142": 4388,
  "irai": 4389,
  "\u2581funduszy": 4390,
  "\u2581\u03bc": 4391,
  "\u2581banque": 4392,
  "\u2581diff\u00e9rence": 4393,
  "\u2581marque": 4394,
  "\u2581utilis\u00e9es": 4395,
  "\u2581client": 4396,
  "\u2581pomo\u017ce": 4397,
  "\u2581essay": 4398,
  "\u2581organisation": 4399,
  "\u2581Han": 4400,
  "dire": 4401,
  "\u2581prawd\u0119": 4402,
  "lt": 4403,
  "\u2581zaraz": 4404,
  "\u2581concern\u00e9es": 4405,
  "\u2581Port": 4406,
  "\u2581Jako": 4407,
  "y\u0142": 4408,
  "\u2581agricole": 4409,
  "\u2581pied": 4410,
  "\u0142\u0105": 4411,
  "\u2581chor": 4412,
  "\u2581Im": 4413,
  "\u2581wyra\u017anie": 4414,
  "pt": 4415,
  "czar": 4416,
  "\u258184": 4417,
  "\u258187": 4418,
  "\u2581raczej": 4419,
  "\u2581Sud": 4420,
  "\u2581http": 4421,
  "\u2581destin\u00e9": 4422,
  "\u25812020": 4423,
  "ple": 4424,
  "org": 4425,
  "len": 4426,
  "\u2581niczego": 4427,
  "ouverture": 4428,
  "\u2581syna": 4429,
  "39": 4430,
  "98": 4431,
  "sol": 4432,
  "\u2581Ter": 4433,
  "\u2581wykonawcze": 4434,
  "\u2581docteur": 4435,
  "\u2581pomy\u015bl": 4436,
  "\u2581lien": 4437,
  "4,": 4438,
  "\u2581porozumienia": 4439,
  "\u2581rozwi\u0105zania": 4440,
  "RA": 4441,
  "\u2581probablement": 4442,
  "zm": 4443,
  "\u2581ilo\u015b\u0107": 4444,
  "\u2581\u00e9quipe": 4445,
  "\u2581fabrication": 4446,
  "\u2581jednostki": 4447,
  "\u2581Czuj": 4448,
  "net": 4449,
  "\u2581sekund": 4450,
  "\u2581sources": 4451,
  "\u2581priv\u00e9": 4452,
  "\u2581CN": 4453,
  "\u2581400": 4454,
  "\u2581commande": 4455,
  "\u2581uk\u0142adu": 4456,
  "\u2581morte": 4457,
  "\u2581wynika": 4458,
  "\u2581vaut": 4459,
  "\u2581pozwoli": 4460,
  "wa\u0107": 4461,
  "\u2581contrats": 4462,
  "\u2581dopiero": 4463,
  "\u2581fix\u00e9es": 4464,
  "\u2581NINIEJSZE": 4465,
  "che": 4466,
  "26": 4467,
  "\u2581d\u00e9cider": 4468,
  "\u2581pewna": 4469,
  "\u2581oczywi\u015bcie": 4470,
  "\u2581PR\u00c9SENT": 4471,
  "\u2581przegl\u0105d": 4472,
  "\u2581utilise": 4473,
  "\u2581Ainsi": 4474,
  "\u2581promotion": 4475,
  "\u25812:": 4476,
  "\u2581wiadomo\u015b\u0107": 4477,
  "organisation": 4478,
  "pe\u0142ni": 4479,
  "\u2581faciliter": 4480,
  "\u2581ROZPORZ\u0104DZENIE": 4481,
  "trz": 4482,
  "\u2581wej\u015bcia": 4483,
  "\u2581conduire": 4484,
  "\u2581rencontrer": 4485,
  "\u2581(19": 4486,
  "kan": 4487,
  "\u2581Wiedzia\u0142": 4488,
  "\u2581connu": 4489,
  "\u2581Home": 4490,
  "\u2581prowadzenia": 4491,
  "\u2581>": 4492,
  "\u2581com": 4493,
  "lait": 4494,
  "Do": 4495,
  "\u2581pouvais": 4496,
  "dol": 4497,
  "grywa": 4498,
  "\u2581Mont": 4499,
  "\u2581procedur\u0105": 4500,
  "aria": 4501,
  "65": 4502,
  "\u00e9volution": 4503,
  "\u2581dolar\u00f3w": 4504,
  "\u2581note": 4505,
  "\u2581dop\u00f3ki": 4506,
  "\u2581finir": 4507,
  "\u2581internationales": 4508,
  "\u2581krew": 4509,
  "\u2581czym\u015b": 4510,
  "\u2581zobaczy": 4511,
  "\u2581perte": 4512,
  "\u2581w\u0142a\u015bciwy": 4513,
  "\u2581puissance": 4514,
  "appliquent": 4515,
  "\u2581dotycz\u0105cej": 4516,
  "47": 4517,
  "\u2581r\u00e9pond": 4518,
  "p\u00e9": 4519,
  "przy": 4520,
  "cisk": 4521,
  "lis": 4522,
  "\u2581ca\u0142ego": 4523,
  "\u2581consid\u00e9r\u00e9": 4524,
  "\u2581mat\u00e9riel": 4525,
  "\u2581pacjent": 4526,
  "\u2581\u017cy\u0107": 4527,
  "\u2581fasse": 4528,
  "IA": 4529,
  "\u2581oubli\u00e9": 4530,
  "gr\u00e9": 4531,
  "\u2581komputer": 4532,
  "my\u015bla\u0142": 4533,
  "tic": 4534,
  "kowe": 4535,
  "\u2581prowadzi\u0107": 4536,
  "\u2581chwil": 4537,
  "EGO": 4538,
  "praw": 4539,
  "\u2581ci\u0105\u017cy": 4540,
  "pine": 4541,
  "\u2581consid\u00e9r\u00e9e": 4542,
  "\u2581conclu": 4543,
  "\u2581sta": 4544,
  "nica": 4545,
  "\u2581czuj\u0119": 4546,
  "\u2581sp\u00e9cial": 4547,
  "\u2581System": 4548,
  "\u2581norm": 4549,
  "\u2581rynk\u00f3w": 4550,
  "c\u00e9": 4551,
  "nny": 4552,
  "szcze": 4553,
  "\u2581couvrir": 4554,
  "\u2581jeste\u015bcie": 4555,
  "\u2581serce": 4556,
  "\u2581dyrektyw\u0105": 4557,
  "danie": 4558,
  "\u2581wypadku": 4559,
  "49": 4560,
  "\u2581ma\u0142y": 4561,
  "\u2581Certains": 4562,
  "\u2581przegl\u0105du": 4563,
  "\u2581aliments": 4564,
  "\u2581ustalenia": 4565,
  "\u2581serais": 4566,
  "\u258193": 4567,
  "\u2581wi\u0119kszo\u015b\u0107": 4568,
  "\u2581straszn": 4569,
  "urgence": 4570,
  "\u2581imprez": 4571,
  "\u2581dispose": 4572,
  "\u2581all\u00e9": 4573,
  "her": 4574,
  "\u2581partout": 4575,
  "\u2581che": 4576,
  "chi": 4577,
  "\u2581transports": 4578,
  "\u2581utile": 4579,
  "\u2581pouvant": 4580,
  "rais": 4581,
  "\u2581moiti\u00e9": 4582,
  "\u2581odniesienia": 4583,
  "\u258143": 4584,
  "iec": 4585,
  "\u2581akt": 4586,
  "\u2581r\u00e9ussi": 4587,
  "\u2581swego": 4588,
  "\u2581r\u00e9sultat": 4589,
  "\u2581compl\u00e8tement": 4590,
  "\u2581Daniel": 4591,
  "\u2581koszt": 4592,
  "\u2581Book": 4593,
  "\u00eates": 4594,
  "\u2581faux": 4595,
  "dro": 4596,
  "\u2581publicznej": 4597,
  "\u2581dodaje": 4598,
  "\u258155": 4599,
  "IE": 4600,
  "0/": 4601,
  "\u2581aspects": 4602,
  "\u2581agents": 4603,
  "\u2581cru": 4604,
  "\u2581dyrektyw\u0119": 4605,
  "\u2581sk": 4606,
  "enseignement": 4607,
  "kg": 4608,
  "\u2581dzi\u0119kuj\u0119": 4609,
  "\u2581pok\u00f3j": 4610,
  "my\u015ble\u0107": 4611,
  "szcz": 4612,
  "\u2581podstawowego": 4613,
  "czna": 4614,
  "\u2581disparu": 4615,
  "\u00e1": 4616,
  "\u2581powrotem": 4617,
  "\u2581possibilit\u00e9s": 4618,
  "\u2581ventes": 4619,
  "\u2581cl\u00e9": 4620,
  "\u2581za\u0142atwi": 4621,
  "\u2581skuteczno\u015bci": 4622,
  "\u2581vi": 4623,
  "\u2581prawem": 4624,
  "\u2581rozumieniu": 4625,
  "\u258120%": 4626,
  "\u2581s\u0142od": 4627,
  "\u2581leczenie": 4628,
  "\u2581podj\u0105\u0107": 4629,
  "\u25818,": 4630,
  "\u2581revenir": 4631,
  "\u2581Comp": 4632,
  "\u2581demi": 4633,
  "\u2581TV": 4634,
  "\u2581nowej": 4635,
  "\u2581zosta": 4636,
  "kop": 4637,
  "ktyw": 4638,
  "\u2581plans": 4639,
  "ouche": 4640,
  "\u2581skarb": 4641,
  "ock": 4642,
  "\u2581etc": 4643,
  "\u2581zawarte": 4644,
  "OS": 4645,
  "\u2581pozosta\u0142e": 4646,
  "by\u015bmy": 4647,
  "\u2581dokument": 4648,
  "nios": 4649,
  "\u2581gospodarczej": 4650,
  "\u2581op\u0142at": 4651,
  "nik\u00f3w": 4652,
  "\u258102": 4653,
  "\u2581cia\u0142o": 4654,
  "\u2581Mel": 4655,
  "\u2581idealn": 4656,
  "\u2581stosowanych": 4657,
  "94": 4658,
  "NI": 4659,
  "\u2581czyli": 4660,
  "\u2581communes": 4661,
  "ji": 4662,
  "\u2581Hel": 4663,
  "dza": 4664,
  "erie": 4665,
  "lec": 4666,
  "\u015ble": 4667,
  "85": 4668,
  "OR": 4669,
  "\u2581odpowiedzialny": 4670,
  "\u2581wk\u0142ad": 4671,
  "\u2581praktyk": 4672,
  "\u2581James": 4673,
  "\u2581Fi": 4674,
  "\u2581wyst\u0105pienia": 4675,
  "\u2581podobne": 4676,
  "n\u0105\u0142": 4677,
  "\u2581P\u00e8re": 4678,
  "intervention": 4679,
  "\u2581Program": 4680,
  "\u2581enfin": 4681,
  "\u2581humain": 4682,
  "\u2581directeur": 4683,
  "\u2581chr\u00e9tiens": 4684,
  "\u2581s\u00e9rieux": 4685,
  "\u2581virus": 4686,
  "\u2581Ac": 4687,
  "\u2581revenu": 4688,
  "\u2581Takie": 4689,
  "dr": 4690,
  "ques": 4691,
  "impact": 4692,
  "\u2581vitesse": 4693,
  "\u2581principalement": 4694,
  "st\u0119p": 4695,
  "\u2581Entre": 4696,
  "ella": 4697,
  "\u2581milion\u00f3w": 4698,
  "\u2581commission": 4699,
  "roz": 4700,
  "\u2581provenant": 4701,
  "\u2581secret": 4702,
  "\u2581g\u00e9n\u00e9ralement": 4703,
  "\u2581kra": 4704,
  "\u2581z\u0142e": 4705,
  "\u2581najpierw": 4706,
  "fik": 4707,
  "i\u0142a": 4708,
  "\u2581meilleurs": 4709,
  "\u2581actuelle": 4710,
  "\u2581BCE": 4711,
  "\u2581r\u00e9aliser": 4712,
  "\u2581(4)": 4713,
  "\u00e9tude": 4714,
  "\u2581dziecka": 4715,
  "\u2581zwi\u0119kszenia": 4716,
  "\u00ef": 4717,
  "\u2581Europa": 4718,
  "\u2581composants": 4719,
  "\u25812017": 4720,
  "\u2581contribuer": 4721,
  "uj\u0105c": 4722,
  "\u2581profil": 4723,
  "lex": 4724,
  "\u2581og\u00f3lne": 4725,
  "\u25811000": 4726,
  "sch": 4727,
  "\u2581d\u00e9fense": 4728,
  "\u2581niepo\u017c\u0105dane": 4729,
  "\u2581alfa": 4730,
  "d\u00e9jeuner": 4731,
  "cher": 4732,
  "\u2581Saint": 4733,
  "\u2581wewn\u0105trz": 4734,
  "\u2581obszarach": 4735,
  "gg": 4736,
  "\u2581budg\u00e9taire": 4737,
  "organisme": 4738,
  "\u2581ira": 4739,
  "rb": 4740,
  "\u2581poprawy": 4741,
  "\u2581Ostatni": 4742,
  "\u258144": 4743,
  "i\u0119cej": 4744,
  "\u2581s\u0105dz\u0119": 4745,
  "\u2581relatifs": 4746,
  "\u2581Pr\u00e9": 4747,
  "\u2581tient": 4748,
  "\u2581arr\u00eat\u00e9": 4749,
  "Autorit\u00e9": 4750,
  "\u2581kobieta": 4751,
  "\u2581EBC": 4752,
  "\u2581proche": 4753,
  "89": 4754,
  "gro": 4755,
  "II": 4756,
  "\u2581surface": 4757,
  "for": 4758,
  "\u2581mises": 4759,
  "\u2581impossible": 4760,
  "\u2581rolnych": 4761,
  "m\u00f3wi": 4762,
  "28": 4763,
  "\u2581uzyskania": 4764,
  "\u2581sytuacja": 4765,
  "\u2581rue": 4766,
  "ish": 4767,
  "sku": 4768,
  "\u2581Date": 4769,
  "\u2581\u0142atwo": 4770,
  "\u2581tiens": 4771,
  "hr": 4772,
  "\u258185": 4773,
  "r\u00f3w": 4774,
  "27": 4775,
  "\u2581pozwolenia": 4776,
  "allais": 4777,
  "\u2581enqu\u00eate": 4778,
  "\u2581sk\u0142ada": 4779,
  "\u2581mil": 4780,
  "\u2581miasto": 4781,
  "\u2581rozmawia\u0107": 4782,
  "\u2581d\u00e9velopper": 4783,
  "\u2581homologacji": 4784,
  "can": 4785,
  "55": 4786,
  "\u2581interne": 4787,
  "\u2581Zjednoczonych": 4788,
  "\u2581particuli\u00e8res": 4789,
  "\u25819,": 4790,
  "\u2581EUROP\u00c9ENNE": 4791,
  "\u2581pierwszej": 4792,
  "\u2581annuel": 4793,
  "\u2581najlepsze": 4794,
  "\u2581\u0142ad": 4795,
  "int\u00e9gration": 4796,
  "kr\u00f3tce": 4797,
  "\u2581Bogu": 4798,
  "\u2581pracowa\u0107": 4799,
  "\u2581wewn\u0119trznego": 4800,
  "ring": 4801,
  "\u258156": 4802,
  "\u2581Tur": 4803,
  "row": 4804,
  "\u2581vir": 4805,
  "\u201b": 4806,
  "\u2581ma\u0142o": 4807,
  "\u2581Bro": 4808,
  "\u2581version": 4809,
  "\u2581100%": 4810,
  "\u2581n\u00e9gociations": 4811,
  "\u2581premi\u00e8res": 4812,
  "\u2581sport": 4813,
  "\u2581b\u0142\u0105d": 4814,
  "\u2581klasy": 4815,
  "\u2581w\u0142adz": 4816,
  "\u2581reszt": 4817,
  "lad": 4818,
  "l\u0119": 4819,
  "\u2581format": 4820,
  "\u2581zaleca": 4821,
  "anda": 4822,
  "cr\u00e9": 4823,
  "\u2581skutk\u00f3w": 4824,
  "\u2581structure": 4825,
  "\u2581conclusion": 4826,
  "\u2581form": 4827,
  "\u2581r\u0119ce": 4828,
  "\u2581d\u00e9tail": 4829,
  "\u2581armes": 4830,
  "\u2581rouge": 4831,
  "\u258192": 4832,
  "\u2581physique": 4833,
  "ola": 4834,
  "\u2581powa\u017cnie": 4835,
  "\u2581destination": 4836,
  "ning": 4837,
  "\u2581ma\u0142e": 4838,
  "\u2581typ": 4839,
  "\u2581uznaje": 4840,
  "\u2581PME": 4841,
  "dzenia": 4842,
  "\u2581funkcjonowaniu": 4843,
  "\u2581wsp\u00f3\u0142": 4844,
  "\u2581choisir": 4845,
  "\u2581noir": 4846,
  "gie": 4847,
  "\u2581Aucun": 4848,
  "\u2581termin": 4849,
  "\u2581Paris": 4850,
  "\u2581viande": 4851,
  "\u2581scientifique": 4852,
  "\u2581sprawdzi\u0107": 4853,
  "\u2581mauvaise": 4854,
  "\u2581u\u017cytkownik\u00f3w": 4855,
  "\u2581b\u00f3l": 4856,
  "\u2581temp\u00e9rature": 4857,
  "cs": 4858,
  "\u2581Dalej": 4859,
  "\u2581Jeden": 4860,
  "\u2581montants": 4861,
  "nis": 4862,
  "\u2581soir\u00e9e": 4863,
  "\u2581gauche": 4864,
  "dge": 4865,
  "88": 4866,
  "\u2581szcz\u0119\u015bcie": 4867,
  "\u2581przemys\u0142": 4868,
  "\u2581zaburzenia": 4869,
  "\u2581po\u015brednictwem": 4870,
  "cz\u0105\u0107": 4871,
  "czy\u0142": 4872,
  "\u2581bal": 4873,
  "\u2581ci\u0105gle": 4874,
  "\u2581dispositifs": 4875,
  "cyt": 4876,
  "\u2581conduite": 4877,
  "\u2581zwykle": 4878,
  "\u2581Er": 4879,
  "\u2581kapita\u0142u": 4880,
  "\u2581instytucje": 4881,
  "dessous": 4882,
  "\u2581marcher": 4883,
  "\u2581przyszed\u0142": 4884,
  "\u2581kolor": 4885,
  "\u2581malade": 4886,
  "\u2581R\u00e9": 4887,
  "\u2581Bra": 4888,
  "\u2581kas": 4889,
  "\u2581p\u00f3jdzie": 4890,
  "\u2581ressemble": 4891,
  "\u2581wierzy": 4892,
  "\u2581ao\u00fbt": 4893,
  "\u2581van": 4894,
  "\u2581op": 4895,
  "aller": 4896,
  "\u2581connaissez": 4897,
  "\u2581przypadk\u00f3w": 4898,
  "\u2581repr\u00e9sentant": 4899,
  "met": 4900,
  ".\";": 4901,
  "dar": 4902,
  "\u2581kart": 4903,
  "48": 4904,
  "\u2581souci": 4905,
  "out": 4906,
  "effet": 4907,
  "\u2581Dyrektywa": 4908,
  "gl\u0105d": 4909,
  "val": 4910,
  "\u2581denr\u00e9es": 4911,
  "59": 4912,
  "ara": 4913,
  "02": 4914,
  "\u2581fix\u00e9": 4915,
  "ag": 4916,
  "\u2581pr\u00e9voir": 4917,
  "\u2581By\u0142o": 4918,
  "\u2581Wsp\u00f3lne": 4919,
  "\u2581osob\u0119": 4920,
  "\u2581spotkanie": 4921,
  "\u2581obchodzi": 4922,
  "\u2581anty": 4923,
  "\u2581Ltd": 4924,
  "77": 4925,
  "\u2581milliards": 4926,
  "cker": 4927,
  "\u0119ta": 4928,
  "\u2581dumping": 4929,
  "ini": 4930,
  "\u2581rendu": 4931,
  "\u2581argent": 4932,
  "\u2581usage": 4933,
  "pada": 4934,
  "\u258110,": 4935,
  "\u2581ruch": 4936,
  "\u2581g\u00f3ry": 4937,
  "\u2581Urz\u0105d": 4938,
  "\u2581s\u0142owo": 4939,
  "\u2581culture": 4940,
  "\u2581m\u0105\u017c": 4941,
  "ycie": 4942,
  "\u2581juge": 4943,
  "\u2581bo\u00eete": 4944,
  "lem": 4945,
  "cznik": 4946,
  "\u2581tire": 4947,
  "\u2581campagne": 4948,
  "\u2581metod": 4949,
  "\u2581recommandations": 4950,
  "\u2581aktyw\u00f3w": 4951,
  "\u2581linii": 4952,
  "\u2581si\u0142y": 4953,
  "\u2581krajowego": 4954,
  "\u2581\u015blub": 4955,
  "\u2581mia\u0142y": 4956,
  "\u258149": 4957,
  "\u2581parfait": 4958,
  "\u2581administracyjne": 4959,
  "\u2581ARR\u00caT": 4960,
  "\u2581prezent": 4961,
  "\u25811)": 4962,
  "leur": 4963,
  "68": 4964,
  "exp\u00e9rience": 4965,
  "\u2581dyrektywa": 4966,
  "\u2581musique": 4967,
  "enti": 4968,
  "\u00e9t": 4969,
  "ra\u017c": 4970,
  "\u2581ZA": 4971,
  "IS": 4972,
  "\u2581tro": 4973,
  "\u2581wprowadzenie": 4974,
  "\u2581ryb": 4975,
  "\u2581ciel": 4976,
  "\u2581formes": 4977,
  "\u258112.": 4978,
  "\u2581Zosta\u0142": 4979,
  "\u2581uda\u0142o": 4980,
  "bb": 4981,
  "tyn": 4982,
  "\u2581systemy": 4983,
  "\u2581zewn\u0105trz": 4984,
  "venu": 4985,
  "\u2581infrastruktury": 4986,
  "\u2581Gal": 4987,
  "\u2581Trzeba": 4988,
  "hy": 4989,
  "mi\u0119dzynarodowych": 4990,
  "\u2581danger": 4991,
  "\u2581innej": 4992,
  "\u00f3d": 4993,
  "\u2581sept": 4994,
  "\u2581sch": 4995,
  "\u2581sko\u0144czy\u0142": 4996,
  "\u2581ofiar": 4997,
  "\u2581sites": 4998,
  "\u2581vise": 4999,
  "\u2581cheveux": 5000,
  "\u2581Euro": 5001,
  "\u2581Tego": 5002,
  "lam": 5003,
  "\u2581maximum": 5004,
  "\u2581cz\u0119\u015bci\u0105": 5005,
  "\u2581przyj\u0119cie": 5006,
  "\u2581w\u0142os": 5007,
  "\u00e9quipe": 5008,
  "\u2581wiedz\u0105": 5009,
  "\u2581\u00e2ge": 5010,
  "\u2581Fo": 5011,
  "\u2581sympt\u00f4mes": 5012,
  "\u2581par\u0119": 5013,
  ".1": 5014,
  "\u2581wytycznych": 5015,
  "\u2581spo\u0142ecznych": 5016,
  "\u2581paiements": 5017,
  "\u2581czasem": 5018,
  "\u2581rendez": 5019,
  "\u2581wymagania": 5020,
  "ssa": 5021,
  "\u2581administratives": 5022,
  "\u2581brzmi": 5023,
  "\u2581particuli\u00e8re": 5024,
  "stwa": 5025,
  "\u2581podr\u00f3\u017cy": 5026,
  "\u2581venue": 5027,
  "92": 5028,
  "\u2581Encore": 5029,
  "\u2581Mark": 5030,
  "venez": 5031,
  "\u2581Lorsqu": 5032,
  "\u258146": 5033,
  "\u2581artyku\u0142u": 5034,
  "szko": 5035,
  "\u2581tydzie\u0144": 5036,
  "\u2581Fil": 5037,
  "36": 5038,
  "\u00e2ch": 5039,
  "\u2581nasza": 5040,
  "zw": 5041,
  "\u2581b\u00e9n\u00e9ficier": 5042,
  "acj\u0105": 5043,
  "\u2581wystarczy": 5044,
  "\u2581directrices": 5045,
  "bezpiecz": 5046,
  "\u2581facteurs": 5047,
  "ade": 5048,
  "\u2581technicznych": 5049,
  "\u2581devenu": 5050,
  "44": 5051,
  "\u2581propri\u00e9t\u00e9": 5052,
  "hez": 5053,
  "cka": 5054,
  "\u2581robi\u0142": 5055,
  "eng": 5056,
  "\u258188": 5057,
  "ng": 5058,
  "pisa\u0107": 5059,
  "kl": 5060,
  "\u2581L\u00e0": 5061,
  "\u2581online": 5062,
  "\u2581znajdzie": 5063,
  "\u2581\u017ar\u00f3de\u0142": 5064,
  "\u2581WSP\u00d3LNOT": 5065,
  "\u2581char": 5066,
  "\u2581nerek": 5067,
  "96": 5068,
  "\u2581plais": 5069,
  "07": 5070,
  "\u2581\u00e9quipements": 5071,
  "\u2581cr\u00e9\u00e9": 5072,
  "\u2581ochron\u0119": 5073,
  "\u2581twoich": 5074,
  "\u2581principaux": 5075,
  "\u2581mondial": 5076,
  "\u2581programy": 5077,
  "\u2581mur": 5078,
  "\u2581int\u00e9r\u00eat": 5079,
  "\u2581zezwolenia": 5080,
  "\u017b": 5081,
  "\u2581okre\u015blonego": 5082,
  "\u2581podmioty": 5083,
  "\u2581dudit": 5084,
  "kra": 5085,
  "\u2581cons\u00e9quences": 5086,
  "ignon": 5087,
  "\u2581chcemy": 5088,
  "\u2581participer": 5089,
  "\u258111.": 5090,
  "\u2581producenta": 5091,
  "dem": 5092,
  "\u2581chcia\u0142bym": 5093,
  "\u2581zwr\u00f3ci\u0107": 5094,
  "\u2581przyj\u0119te": 5095,
  "\u2581Marc": 5096,
  "\u2581las": 5097,
  "\u2581conforme": 5098,
  "ses": 5099,
  "\u2581kan": 5100,
  "\u2581rencontr\u00e9": 5101,
  "\u2581wsp\u00f3lnych": 5102,
  "\u2581s\u0142u\u017cby": 5103,
  "\u2581Prawd": 5104,
  "\u2581za\u0142\u0105cznik": 5105,
  "\u2581osi\u0105gn\u0105\u0107": 5106,
  "vel": 5107,
  "mal": 5108,
  "\u2581mi\u0142o\u015bci": 5109,
  "\u258141": 5110,
  "\u2581umiej\u0119tno\u015bci": 5111,
  "\u2581VII": 5112,
  "ota": 5113,
  "\u2581No\u00ebl": 5114,
  "\u2581banques": 5115,
  "\u2581\u017c": 5116,
  "\u2581opis": 5117,
  "\u2581przyj\u0105\u0107": 5118,
  "\u2581wzywa": 5119,
  "ico": 5120,
  "\u2581Ciesz": 5121,
  "vr": 5122,
  "\u00f3z": 5123,
  "ose": 5124,
  "1.": 5125,
  "\u2581daleko": 5126,
  "\u258147": 5127,
  "\u2581Ram": 5128,
  "\u2581perd": 5129,
  "\u2581gwiazd": 5130,
  "\u2581inf\u00e9rieure": 5131,
  "\u2581Eu": 5132,
  "\u2581importants": 5133,
  "\u2581przedstawia": 5134,
  "\u2581mog\u0142aby": 5135,
  "ed\u0142ug": 5136,
  "\u2581compl\u00e8te": 5137,
  "\u2581potentiel": 5138,
  "\u2581bain": 5139,
  "\u2581si\u00e8ge": 5140,
  "\u2581changements": 5141,
  "obligation": 5142,
  "\u2581sentir": 5143,
  "\u2581rad": 5144,
  "\u2581arme": 5145,
  "\u2581uprawnie\u0144": 5146,
  "\u2581retourner": 5147,
  "\u2581w\u0142asnych": 5148,
  "\u2581chocia\u017c": 5149,
  "\u2581uk\u0142ad": 5150,
  "\u2581droite": 5151,
  "\u2581dzwon": 5152,
  "\u25815%": 5153,
  "\u2581wywozu": 5154,
  "\u2581camp": 5155,
  "\u2581zmienia": 5156,
  "\u2581zn\u00f3w": 5157,
  "\u2581animale": 5158,
  "2)": 5159,
  "\u2581konsultacji": 5160,
  "\u2581m\u00f3wi\u0105": 5161,
  "\u2581Os": 5162,
  "\u25813:": 5163,
  "NA": 5164,
  "\u2581bibli": 5165,
  "bot": 5166,
  "\u2581mange": 5167,
  "\u2581difficult\u00e9s": 5168,
  "\":": 5169,
  "\u2581bouche": 5170,
  "\u2581s\u00e9jour": 5171,
  "\u2581d\u00e9bat": 5172,
  "\u2581Pays": 5173,
  "adh\u00e9sion": 5174,
  "\u2581presse": 5175,
  "\u2581wolno": 5176,
  "\u2581entit\u00e9s": 5177,
  "unt": 5178,
  "ines": 5179,
  "\u2581zgadza": 5180,
  "\u2581faits": 5181,
  "\u2581combat": 5182,
  "\u2581exp\u00e9rience": 5183,
  "unk": 5184,
  "\u2581gotowa": 5185,
  "\u2581pleine": 5186,
  "\u2581zmniejszenie": 5187,
  "\u2581wyj\u015b\u0107": 5188,
  "rzuca": 5189,
  "\u00e9lectricit\u00e9": 5190,
  "association": 5191,
  "33": 5192,
  "\u2581recevoir": 5193,
  "\u2581cha\u00eene": 5194,
  "impression": 5195,
  "mieni": 5196,
  "\u2581destin\u00e9es": 5197,
  "\u2581\u015brodek": 5198,
  "\u2581circonstances": 5199,
  "In": 5200,
  "\u25811998": 5201,
  "aki": 5202,
  "mel": 5203,
  "\u2581\u015bwiat\u0142a": 5204,
  "\u2581w\u0142asne": 5205,
  "\u2581traiter": 5206,
  "\u2581[3]": 5207,
  "\u2581daty": 5208,
  "\u2581przedmiotem": 5209,
  "\u2581Martin": 5210,
  "-3": 5211,
  "\u2581600": 5212,
  "\u2581przykro": 5213,
  "\u2581signe": 5214,
  "h\u00e9r": 5215,
  "lice": 5216,
  "\u2581association": 5217,
  "\u2581decyzj\u0105": 5218,
  "rabia": 5219,
  "\u2581chambres": 5220,
  "\u2581m\u00e9canisme": 5221,
  "\u2581pr\u00e9paration": 5222,
  "\u2581techniczne": 5223,
  "PL": 5224,
  "chodz\u0119": 5225,
  "nor": 5226,
  "rd": 5227,
  "\u2581EEE": 5228,
  "SE": 5229,
  "\u00e8rent": 5230,
  "\u2581podatku": 5231,
  "\u2581City": 5232,
  "\u2581Compte": 5233,
  "\u2581partenariat": 5234,
  "\u2581administracyjny": 5235,
  "\u2581Robert": 5236,
  "\u2581neuf": 5237,
  "\u2581\u015brodku": 5238,
  "\u2581cz\u0142onkowskimi": 5239,
  "\u2581respecter": 5240,
  "\u2581pochodz\u0105cych": 5241,
  "\u2581ko\u015bci": 5242,
  "\u2581odpowied\u017a": 5243,
  "\u2581NC": 5244,
  "\u2581sc\u00e8ne": 5245,
  "wolni": 5246,
  "czne": 5247,
  "\u2581element\u00f3w": 5248,
  "91": 5249,
  "\u2581poser": 5250,
  "cj\u0105": 5251,
  "\u2581przyjaciele": 5252,
  "\u2581machine": 5253,
  "wiedzia\u0142em": 5254,
  "\u2581correspondant": 5255,
  "\u2581morderstw": 5256,
  "\u2581ostatni": 5257,
  "\u2581cliniques": 5258,
  "tus": 5259,
  "\u2581wi\u0119kszo\u015bci": 5260,
  "\u25811995": 5261,
  "zer": 5262,
  "\u2581kryteri\u00f3w": 5263,
  "\u2581port\u00e9e": 5264,
  "0,": 5265,
  "\u2581stabilit\u00e9": 5266,
  "fin": 5267,
  "bel": 5268,
  "\u2581Van": 5269,
  "aurait": 5270,
  "ira": 5271,
  "bru": 5272,
  "97": 5273,
  "hal": 5274,
  "\u2581l\u00e9gumes": 5275,
  "ers": 5276,
  "ala": 5277,
  "43": 5278,
  "cio": 5279,
  "\u0142o\u017cy\u0142": 5280,
  "cadre": 5281,
  "\u2581Kom": 5282,
  "AD": 5283,
  "\u2581musia\u0142a": 5284,
  "\u2581capitaine": 5285,
  "\u2581pomaga": 5286,
  "\u2581lek\u00f3w": 5287,
  "\u2581Schengen": 5288,
  "\u2581wykonywania": 5289,
  "\u2581Wtedy": 5290,
  "\u2581information": 5291,
  "41": 5292,
  "Am\u00e9rique": 5293,
  "Venez": 5294,
  "\u2581elementy": 5295,
  "attend": 5296,
  "\u2581direct": 5297,
  "pol": 5298,
  "\u2581consid\u00e8re": 5299,
  "\u2581majorit\u00e9": 5300,
  "hrze\u015bcijan": 5301,
  "czeka\u0107": 5302,
  "\u2581op\u00e9rateurs": 5303,
  "56": 5304,
  "\u2581trudne": 5305,
  "wi\u0119": 5306,
  "\u2581appropri\u00e9es": 5307,
  "\u2581pozna": 5308,
  "nem": 5309,
  "\u2581distribution": 5310,
  "\u2581directives": 5311,
  "\u2581przyj": 5312,
  "tworzy\u0107": 5313,
  "\u258172": 5314,
  "\u00e9laboration": 5315,
  "\u2581zamiast": 5316,
  "pis": 5317,
  "\u2581wyp": 5318,
  "\u2581veiller": 5319,
  "\u2581zasadzie": 5320,
  "appliquer": 5321,
  "\u2581sierpnia": 5322,
  "puszcza": 5323,
  "ab\u0142a": 5324,
  "dpowiedzialno\u015bci": 5325,
  "gre": 5326,
  "\u2581r\u00e9servation": 5327,
  "\u2581reconnaissance": 5328,
  "MI": 5329,
  "\u2581Wniosek": 5330,
  "\u2581sp\u00f3jno\u015bci": 5331,
  "\u2581mas": 5332,
  "\u2581boire": 5333,
  "\u2581organu": 5334,
  "\u2581situ\u00e9": 5335,
  "\u2581250": 5336,
  "enregistrement": 5337,
  "\u2581liczb\u0119": 5338,
  "\u2581sac": 5339,
  "\u2581g\u00e9n\u00e9rales": 5340,
  "\u2581suppl\u00e9mentaire": 5341,
  "\u2581faite": 5342,
  "\u2581\u015bwietle": 5343,
  "\u2581Hi": 5344,
  "\u2581finansowej": 5345,
  "\u2581arr\u00eate": 5346,
  "j\u0105c\u0105": 5347,
  "\u2581val": 5348,
  "\u2581ca\u0142kiem": 5349,
  "\u2581pr\u00f3b": 5350,
  "approche": 5351,
  "\u2581nikogo": 5352,
  "\u2581d\u00e9rogation": 5353,
  "\u2581propos\u00e9": 5354,
  "\u2581Pend": 5355,
  "agriculture": 5356,
  "\u2581Potem": 5357,
  "ouvrir": 5358,
  "\u2581Appel": 5359,
  "\u258151": 5360,
  "\u2581col\u00e8re": 5361,
  "..\"": 5362,
  "\u2581douleur": 5363,
  "\u2581Cele": 5364,
  "\u2581rodzaj": 5365,
  "\u2581appareils": 5366,
  "\u2581atteint": 5367,
  "\u2581skutki": 5368,
  "\u2581vote": 5369,
  "\u2581can": 5370,
  "\u2581Ali": 5371,
  "\u2581stwierdzono": 5372,
  "\u2581Toute": 5373,
  "\u2581spod": 5374,
  "octroi": 5375,
  "\u2581t\u00e2ches": 5376,
  "\u2581couleur": 5377,
  "\u2581normale": 5378,
  "syp": 5379,
  "38": 5380,
  "\u2581kiedykolwiek": 5381,
  "h\u00f4pital": 5382,
  "\u2581prenez": 5383,
  "\u2581Wsp\u00f3lnocie": 5384,
  "\u2581st\u0119\u017cenie": 5385,
  "\u2581teneur": 5386,
  "am\u00e9liorer": 5387,
  "\u2581ladite": 5388,
  "\u2581ser": 5389,
  "Mo": 5390,
  "\u258113,": 5391,
  "\u2581acteurs": 5392,
  "ls": 5393,
  "pyt": 5394,
  "\u2581kapitan": 5395,
  "am\u00e9lioration": 5396,
  "\u2581\u00e9tablies": 5397,
  "\u2581obowi\u0105zk\u00f3w": 5398,
  "\u2581policja": 5399,
  "\u2581zabija": 5400,
  "\u2581para": 5401,
  "\u2581internet": 5402,
  "app": 5403,
  "\u2581wypadek": 5404,
  "\u2581Zgadza": 5405,
  "\u2581cependant": 5406,
  "\u00c5": 5407,
  "\u2581vin": 5408,
  "\u2581dos": 5409,
  "\u2581tombe": 5410,
  "6,": 5411,
  "\u2581appeler": 5412,
  "\u2581pr\u00f3bowa\u0142": 5413,
  "adresse": 5414,
  "\u2581doses": 5415,
  "ike": 5416,
  "\u2581LES": 5417,
  "\u2581kolej": 5418,
  "\u2581pl": 5419,
  "\u2581devient": 5420,
  "\u2581kaw": 5421,
  "a\u0142o": 5422,
  "\u2581pieprz": 5423,
  "\u2581uzyska\u0107": 5424,
  "\u25812)": 5425,
  "\u2581napraw": 5426,
  "\u2581coh\u00e9sion": 5427,
  "\u2581idi": 5428,
  "\u2581tygodnie": 5429,
  "\u2581Informacje": 5430,
  "\u2581Dwa": 5431,
  "\u258195": 5432,
  "\u2581natomiast": 5433,
  "\u2581jednostek": 5434,
  "\u2581wej\u015b\u0107": 5435,
  "\u2581Pla": 5436,
  "qu\u00e9": 5437,
  "\u2581dyrektywie": 5438,
  "col": 5439,
  "\u2581commerciales": 5440,
  "\u2581dobrym": 5441,
  "\u2581d\u00e9clar\u00e9": 5442,
  "\u2581Lisbonne": 5443,
  "\u2581\u00e9tablie": 5444,
  "\u2581solutions": 5445,
  "\u2581SUR": 5446,
  "\u2581Nor": 5447,
  "har": 5448,
  "\u2581pewno\u015bci\u0105": 5449,
  "\u2581langues": 5450,
  "\u2581funkcji": 5451,
  "spa": 5452,
  "\u00e2": 5453,
  "\u2581proc\u00e9der": 5454,
  "\u2581trudno\u015bci": 5455,
  "\u2581wyrob\u00f3w": 5456,
  "ern": 5457,
  "\u2581praca": 5458,
  "\u2581fr\u00e8res": 5459,
  "\u2581uwzgl\u0119dni\u0107": 5460,
  "tak": 5461,
  "\u2581zawieraj\u0105ce": 5462,
  "g\u00e9": 5463,
  "\u2581vide": 5464,
  "ugh": 5465,
  "\u2581euros": 5466,
  "wa\u017cne": 5467,
  "lig": 5468,
  "\u2581rad\u0119": 5469,
  "\u2581micro": 5470,
  "\u2581nourriture": 5471,
  "\u2581Aide": 5472,
  "\u258196": 5473,
  "\u2581refundacji": 5474,
  "ele": 5475,
  "ra\u017ca": 5476,
  "\u2581wychodzi": 5477,
  "\u2581klient\u00f3w": 5478,
  "\u2581wymagane": 5479,
  "\u2581pani\u0105": 5480,
  "\u2581dieu": 5481,
  "\u2581rady": 5482,
  "\u2581maintenir": 5483,
  "\u2581wykaz": 5484,
  "\u2581sk\u0105d": 5485,
  "initiative": 5486,
  "\u2581Gr": 5487,
  "quer": 5488,
  "\u2581autorisation": 5489,
  "\u25812018": 5490,
  "\u2581r\u00e8glements": 5491,
  "\u2581EUROPEJSKICH": 5492,
  "ato": 5493,
  "\u2581czu\u0142": 5494,
  "ments": 5495,
  "iczne": 5496,
  "\u2581kontakt": 5497,
  "\u2581victime": 5498,
  "61": 5499,
  "\u2581rentre": 5500,
  "sad": 5501,
  "\u2581voici": 5502,
  "\u2581Adam": 5503,
  "\u00fb": 5504,
  "\u2581r\u00e9ponses": 5505,
  "audit": 5506,
  "\u2581scientifiques": 5507,
  "\u2581tor": 5508,
  "\u2581Celui": 5509,
  "\u2581sk\u00f3ry": 5510,
  "czenie": 5511,
  "\u25811997": 5512,
  "\u2581Trybuna\u0142u": 5513,
  "\u2581cr\u00e9dits": 5514,
  "\u2581compagnie": 5515,
  "\u0142atw": 5516,
  "\u2581conna\u00eet": 5517,
  "\u2581pleinement": 5518,
  "\u2581victimes": 5519,
  "ET": 5520,
  "\u2581W\u0142a\u015bciw": 5521,
  "\u2581d\u00e9termination": 5522,
  "\u2581not": 5523,
  "skiej": 5524,
  "\u2581firm": 5525,
  "\u2581central": 5526,
  "ainteresowanych": 5527,
  "\u2581Bal": 5528,
  "\u2581Eli": 5529,
  "\u2581fiche": 5530,
  "\u2581West": 5531,
  "\u2581\u015blad": 5532,
  "\u2581soins": 5533,
  "\u2581restructuration": 5534,
  "ora": 5535,
  "af": 5536,
  "\u2581garanties": 5537,
  "\u2581\u015bwiadczenia": 5538,
  "identification": 5539,
  "uis": 5540,
  "\u2581kwota": 5541,
  "\u2581cho\u0107": 5542,
  "\u2581Ameryk": 5543,
  "64": 5544,
  "\u2581ferait": 5545,
  "\u2581EUROP\u00c9ENNES": 5546,
  "\u2581sub": 5547,
  "arze": 5548,
  "\u2581zawarto\u015bci": 5549,
  "\u2581pliku": 5550,
  "alimentation": 5551,
  "\u2581prawne": 5552,
  "existence": 5553,
  "\u2581COMMUNAUT\u00c9S": 5554,
  "\u2581M\u015aP": 5555,
  "\u2581saut": 5556,
  "fo": 5557,
  "\u2581dormir": 5558,
  "\u2581okre\u015bli\u0107": 5559,
  "tru": 5560,
  "id\u00e9e": 5561,
  "\u015bcij": 5562,
  "\u258194": 5563,
  "\u2581nazwa": 5564,
  "\u2581consid\u00e9ration": 5565,
  "\u2581Jej": 5566,
  "\u2581skoro": 5567,
  "rig": 5568,
  "\u2581sp\u00f3\u0142ki": 5569,
  "\u2581Nations": 5570,
  "\u2581preuves": 5571,
  "\u2581appropri\u00e9": 5572,
  "\u2581engagements": 5573,
  "\u2581initiale": 5574,
  "09": 5575,
  "\u2581badaniu": 5576,
  "\u2581Chocia\u017c": 5577,
  "\u2581cour": 5578,
  "shi": 5579,
  "\u2581choisi": 5580,
  "\u2581avantages": 5581,
  "\u2581ma\u0142ych": 5582,
  "\u2581VIII": 5583,
  "owali\u015bmy": 5584,
  "\u2581znaczenia": 5585,
  "\u2581cellules": 5586,
  "\u2581darmo": 5587,
  "\u2581observations": 5588,
  "\u2581pi\u0142": 5589,
  "pi\u0119": 5590,
  "\u2581Lek": 5591,
  "\u2581\u0142": 5592,
  "\u2581devriez": 5593,
  "\u2581soleil": 5594,
  "\u2581spe\u0142nia": 5595,
  "\u0119ci": 5596,
  "\u2581volont\u00e9": 5597,
  "dyn": 5598,
  "\u2581matki": 5599,
  "\u2581d\u00e9finies": 5600,
  "\u2581miesi\u0105ce": 5601,
  "\u2581Radzie": 5602,
  "\u2581cerveau": 5603,
  "69": 5604,
  "\u2581transmission": 5605,
  "\u2581CYP": 5606,
  "\u2581entendre": 5607,
  "51": 5608,
  "ida": 5609,
  "rozmawia": 5610,
  "assistance": 5611,
  "\u2581drog\u0119": 5612,
  "\u2581wystarczaj\u0105co": 5613,
  "\u2581opieki": 5614,
  "\u2581wy\u017cej": 5615,
  "\u2581tiret": 5616,
  "\u00e9gard": 5617,
  "\u2581konieczno\u015bci": 5618,
  "\u2581associ\u00e9s": 5619,
  "ity": 5620,
  "\u2581Dok\u0142adn": 5621,
  "................": 5622,
  "\u2581bateau": 5623,
  "\u2581lepsze": 5624,
  "emu": 5625,
  "tyk": 5626,
  "42": 5627,
  "\u00e2ge": 5628,
  "hel": 5629,
  "\u2581transparence": 5630,
  "\u258162": 5631,
  "\u2581cri": 5632,
  "\u2581tenant": 5633,
  "\u2581Obiec": 5634,
  "\u2581logiciels": 5635,
  "\u2581zasadami": 5636,
  "\u2581spo\u0142ecznej": 5637,
  "order": 5638,
  "ets": 5639,
  "\u2581stockage": 5640,
  "\u2581aimer": 5641,
  "aty": 5642,
  "din": 5643,
  "\u2581navire": 5644,
  "oni": 5645,
  "\u258152": 5646,
  "\u2581\u00e9t": 5647,
  "\u2581normal": 5648,
  "\u2581kul": 5649,
  "\u2581partage": 5650,
  "\u2581pr\u00e9parer": 5651,
  "\u2581Kli": 5652,
  "\u2581obtenu": 5653,
  "\u2581wynikaj\u0105ce": 5654,
  "\u2581zmiana": 5655,
  "\u2581historii": 5656,
  "\u2581120": 5657,
  "rzuci\u0142": 5658,
  "\u2581effectu\u00e9es": 5659,
  "\u2581rencontre": 5660,
  "\u2581seuls": 5661,
  "\u2581wielo": 5662,
  "\u2581r\u00e9veil": 5663,
  "erzy": 5664,
  "\u015a": 5665,
  "\u2581now\u0105": 5666,
  "\u2581sytuacj\u0119": 5667,
  "\u2581figure": 5668,
  "\u2581souvenir": 5669,
  "\u2581umiera": 5670,
  "\u2581suffisamment": 5671,
  "\u2581fixe": 5672,
  "\u2581ud": 5673,
  "\u2581dangereux": 5674,
  "\u2581terrain": 5675,
  "\u2581Powinni": 5676,
  "\u2581leczeniu": 5677,
  "illes": 5678,
  "kaza\u0142": 5679,
  "\u2581dost\u0119pnych": 5680,
  "\u2581capable": 5681,
  "\u2581cz\u0142owiekiem": 5682,
  "dz\u0105": 5683,
  "ommercialisation": 5684,
  "CO": 5685,
  "\u2581susceptibles": 5686,
  "\u2581disent": 5687,
  "\u2581m\u00e9rite": 5688,
  "\u2581secondes": 5689,
  "\u2581wsp\u00f3lnotowych": 5690,
  "\u2581komp": 5691,
  "\u2581transformation": 5692,
  "\u258115.": 5693,
  "\u2581Rec": 5694,
  "stal": 5695,
  "\u2581wszystkiego": 5696,
  "lim": 5697,
  "pi\u0119t": 5698,
  "\u2581bezpiecze\u0144stwo": 5699,
  "\u2581am": 5700,
  "\u2581stanowisko": 5701,
  "\u2581standard": 5702,
  "\u2581umie": 5703,
  "\u2581wi\u0119ksze": 5704,
  "\u2581vision": 5705,
  "\u2581wierz\u0119": 5706,
  "rus": 5707,
  "\u2581Nadal": 5708,
  "\u2581Znalaz\u0142": 5709,
  "\u2581Nazwa": 5710,
  "\u2581essentiel": 5711,
  "exception": 5712,
  "\u2581Avez": 5713,
  "\u2581donn\u00e9e": 5714,
  "\u2581list": 5715,
  "rant": 5716,
  "\u2581istniej\u0105": 5717,
  "form": 5718,
  "bat": 5719,
  "\u2581seraient": 5720,
  "\u2581Niemcy": 5721,
  "da\u0142": 5722,
  "\u2581vit": 5723,
  "\u2581Rad\u0119": 5724,
  "\u2581pourcentage": 5725,
  "\u2581p\u00f3j\u015b": 5726,
  "\u2581Nom": 5727,
  "\u2581bons": 5728,
  "\u00e8te": 5729,
  "\u2581prawdopodobnie": 5730,
  "rzecie\u017c": 5731,
  "\u2581jaj": 5732,
  "\u2581populaire": 5733,
  "\u2581okazji": 5734,
  "76": 5735,
  "\u2581tonnes": 5736,
  "\u2581entier": 5737,
  "\u2581leki": 5738,
  "\u2581chaud": 5739,
  "\u2581przyj\u0119\u0142a": 5740,
  "Allemagne": 5741,
  "\u2581T\u00e9moins": 5742,
  "\u2581instant": 5743,
  "\u2581stali": 5744,
  "\u2581Far": 5745,
  "79": 5746,
  "\u2581mimo": 5747,
  "DA": 5748,
  "\u2581Umowy": 5749,
  "\u2581dum": 5750,
  "\u2581parlez": 5751,
  "\u2581constituent": 5752,
  "\u2581unit\u00e9s": 5753,
  "ceta": 5754,
  "dit": 5755,
  "eck": 5756,
  "\u2581originaires": 5757,
  "\u2581Fu": 5758,
  "\u2581sze\u015b\u0107": 5759,
  "dzenie": 5760,
  "\u2581kwot\u0119": 5761,
  "mus": 5762,
  "57": 5763,
  "\u2581innowacji": 5764,
  "\u2581po\u0142ow\u00f3w": 5765,
  "\u2581pr\u00e9sentation": 5766,
  "AR": 5767,
  "\u2581quitter": 5768,
  "\u2581adresse": 5769,
  "\u2581drogue": 5770,
  "ttes": 5771,
  "nger": 5772,
  "\u2581zdolno\u015b\u0107": 5773,
  "\u2581crime": 5774,
  "\u2581okre\u015blony": 5775,
  "\u2581odpad\u00f3w": 5776,
  "\u2581przestrzeni": 5777,
  "match": 5778,
  "\u2581nouvel": 5779,
  "\u2581fixation": 5780,
  "istes": 5781,
  "\u2581wysokiej": 5782,
  "\u2581bior\u0105c": 5783,
  "\u2581sprawach": 5784,
  "\u258154": 5785,
  "\u2581premiers": 5786,
  "\u2581distance": 5787,
  "\u2581s\u0153ur": 5788,
  "\u2581maladies": 5789,
  "\u2581appropri\u00e9e": 5790,
  "antes": 5791,
  "\u2581concentration": 5792,
  "\u2581zapalenie": 5793,
  "\u2581pobli\u017cu": 5794,
  "\u2581naissance": 5795,
  "\u2581ocen\u0119": 5796,
  "\u2581obejmuj\u0105": 5797,
  "Les": 5798,
  "\u2581vivant": 5799,
  "\u2581Dia": 5800,
  "\u25811996": 5801,
  "\u2581masse": 5802,
  "\u2581fronti\u00e8res": 5803,
  "\u2581pi\u0119ciu": 5804,
  "\u258153": 5805,
  "\u2581importantes": 5806,
  "\u2581installations": 5807,
  "\u2581cher": 5808,
  "\u2581ouvrir": 5809,
  "\u2581sexe": 5810,
  "\u258113.": 5811,
  "\u2581couverture": 5812,
  "ther": 5813,
  "\u2581fr\u00e9quent": 5814,
  "\u0119cia": 5815,
  "\u2581r\u00e8gle": 5816,
  "\u2581succ\u00e8s": 5817,
  "\u2581wybiera": 5818,
  "del\u00e0": 5819,
  "\u2581titres": 5820,
  "\u2581owoc\u00f3w": 5821,
  "pprovisionnement": 5822,
  "\u2581okre\u015blono": 5823,
  "\u2581Russie": 5824,
  "\u2581ucieka": 5825,
  "\u2581comp\u00e9titivit\u00e9": 5826,
  "gueu": 5827,
  "\u2581czterech": 5828,
  "aise": 5829,
  "\u2581recettes": 5830,
  "\u2581zabezpieczenia": 5831,
  "\u2581pieds": 5832,
  "7,": 5833,
  "\u2581priorit\u00e9s": 5834,
  "\u2581r\u00e9action": 5835,
  "\u00e9viter": 5836,
  "ange": 5837,
  "\u2581Quelque": 5838,
  "\u2581description": 5839,
  "pen": 5840,
  "act": 5841,
  "\u2581zainteresowane": 5842,
  "\u2581Bezpiecze\u0144stwa": 5843,
  "\u2581z\u0142o": 5844,
  "\u2581Ziemi": 5845,
  "7%": 5846,
  "\u2581s\u00fbrement": 5847,
  "gang": 5848,
  "aniu": 5849,
  "\u2581jou\u00e9": 5850,
  "\u2581w\u0105tpliwo\u015bci": 5851,
  "cjon": 5852,
  "3%": 5853,
  "enfant": 5854,
  "\u2581by\u0142by": 5855,
  "\u2581d\u00e9lais": 5856,
  "\u2581cycle": 5857,
  "\u2581lud\u017ami": 5858,
  "\u2581danej": 5859,
  "\u258189": 5860,
  "\u2581Air": 5861,
  "\u2581proc\u00e8s": 5862,
  "\u2581obie": 5863,
  "kor": 5864,
  "\u2581reform": 5865,
  "\u2581arri\u00e8re": 5866,
  "occasion": 5867,
  "\u2581parole": 5868,
  "\u2581zwi\u0105zek": 5869,
  "asza": 5870,
  "\u2581podej\u015bcie": 5871,
  "\u2581publiczne": 5872,
  "prz": 5873,
  "\u2581punkt\u00f3w": 5874,
  "\u2581uwierzy\u0107": 5875,
  "\u2581samochodu": 5876,
  "\u2581diff\u00e9rent": 5877,
  "\u2581objawy": 5878,
  "\u2581offres": 5879,
  "\u2581zada\u0144": 5880,
  "\u2581wolno\u015bci": 5881,
  "\u2581Sil": 5882,
  "\u2581stanowiska": 5883,
  "\u2581globale": 5884,
  "\u2581r\u00e9nale": 5885,
  "\u2581szczeg\u00f3lne": 5886,
  "\u2581obszaru": 5887,
  "ford": 5888,
  "\u2581handlowych": 5889,
  "\u2581tru": 5890,
  "\u2581fixer": 5891,
  "\u2581w\u0142asnej": 5892,
  "\u2581uwzgl\u0119dnieniem": 5893,
  "\u2581kraj": 5894,
  "\u2581gagn\u00e9": 5895,
  "j\u0105ca": 5896,
  "\u2581opini\u0105": 5897,
  "\u2581esprit": 5898,
  "\u2581rzeczywi\u015bcie": 5899,
  "\u2581zak\u0142ad": 5900,
  "\u2581szans\u0119": 5901,
  "\u2581kt\u00f3rymi": 5902,
  "\u2581ter": 5903,
  "\u2581szkolenia": 5904,
  "\u2581przekracza": 5905,
  "66": 5906,
  "\u2581zacz\u0105\u0142": 5907,
  "\u2581injection": 5908,
  "\u2581magnifique": 5909,
  "\u2581v\u00e9rification": 5910,
  "\u2581w\u0142a\u015bciwych": 5911,
  "\u2581Pana": 5912,
  "\u2581popiera": 5913,
  "\u2581rodzina": 5914,
  "Al": 5915,
  "\u2581nowo": 5916,
  "szym": 5917,
  "\u2581Richard": 5918,
  "cept": 5919,
  "\u2581sud": 5920,
  "\u2581d\u00e9tails": 5921,
  "\u2581puissent": 5922,
  "\u2581bibl": 5923,
  "\u2581tre\u015bci": 5924,
  "\u2581chrze": 5925,
  "\u2581otwiera": 5926,
  "\u2581proste": 5927,
  "zja": 5928,
  "plat": 5929,
  "c\u00e9d": 5930,
  "szczy": 5931,
  "ody": 5932,
  "\u2581prochain": 5933,
  "\u2581zachowa\u0107": 5934,
  "\u2581gospodarczych": 5935,
  "\u2581nosi": 5936,
  "\u2581pr\u00e9vention": 5937,
  "\u2581Rom": 5938,
  "lny": 5939,
  "\u2581fr\u00e9quence": 5940,
  "\u2581danym": 5941,
  "brano": 5942,
  "onego": 5943,
  "iser": 5944,
  "\u00bf": 5945,
  "\u2581croyez": 5946,
  "\u2581zdanie": 5947,
  "\u2581zarz\u0105dzanie": 5948,
  "\u2581trafic": 5949,
  "\u2581r\u00e9unions": 5950,
  "\u2581wykorzystanie": 5951,
  "\u25811994": 5952,
  "\u2581gwarancji": 5953,
  "\u2581prennent": 5954,
  "NE": 5955,
  "gl": 5956,
  "\u0118": 5957,
  "\u2581fri": 5958,
  "\u2581Am\u00e9rique": 5959,
  ".3.": 5960,
  "\u2581okre\u015blonym": 5961,
  "\u2581fl": 5962,
  "\u2581podlega": 5963,
  "\u2581pole": 5964,
  "\u2581potrzeba": 5965,
  "\u2581rodzaje": 5966,
  "\u2581Termin": 5967,
  "\u2581\u017beby": 5968,
  "\u2581cl\u00e9s": 5969,
  "\u2581repr\u00e9sentants": 5970,
  "\u2581(2": 5971,
  "\u2581okoliczno\u015bci": 5972,
  "\u2581fix\u00e9s": 5973,
  "\u2581SA": 5974,
  "\u2581Trouv": 5975,
  "wan": 5976,
  "pr\u00f3bowa\u0107": 5977,
  "\u2581locaux": 5978,
  "\u2581Syn": 5979,
  "mog": 5980,
  "\u2581ludziom": 5981,
  "ayez": 5982,
  "\u2581restitution": 5983,
  "pod": 5984,
  "vol": 5985,
  "\u2581Ham": 5986,
  "\u2581sprawozdaniu": 5987,
  "\u2581M\u00f3g\u0142": 5988,
  "exposition": 5989,
  "pot": 5990,
  "\u2581Nad": 5991,
  "73": 5992,
  "\u2581nord": 5993,
  "\u2581complet": 5994,
  "\u2581diminution": 5995,
  "\u2581napisa\u0142": 5996,
  "lne": 5997,
  "ywa": 5998,
  "\u2581initiatives": 5999,
  "\u2581regionie": 6000,
  "\u2581uratowa": 6001,
  "\u2581lin": 6002,
  "\u2581ONZ": 6003,
  "dames": 6004,
  "\u2581wskazuje": 6005,
  "\u2581w\u0142a\u015bciwego": 6006,
  "\u2581appliquer": 6007,
  "84": 6008,
  "\u2581inni": 6009,
  "rek": 6010,
  "\u2581stoi": 6011,
  "\u2581stupide": 6012,
  "\u2581sal": 6013,
  "\u2581B\u0119dziemy": 6014,
  "jan": 6015,
  "kowi": 6016,
  "\u2581Bou": 6017,
  "\u2581ostatnie": 6018,
  "a\u0142y": 6019,
  "\u2581Ceci": 6020,
  "\u2581zwraca": 6021,
  "ond": 6022,
  "\u2581Ap": 6023,
  "\u2581conseils": 6024,
  "tyka": 6025,
  "\u2581\u017ar\u00f3d\u0142a": 6026,
  "\u2581dokumenty": 6027,
  "\u2581Kr\u00f3lestwa": 6028,
  "\u2581bande": 6029,
  "-4": 6030,
  "ting": 6031,
  "\u2581plage": 6032,
  "\u2581nieza": 6033,
  "RE": 6034,
  "Pro": 6035,
  "\u2581razu": 6036,
  "si\u0142": 6037,
  "\u2581ordre": 6038,
  "\u2581okre\u015blonymi": 6039,
  "\u2581Sto": 6040,
  "\u2581atteints": 6041,
  "\u2581clinique": 6042,
  "\u2581froid": 6043,
  "\u2581d\u0142u\u017cej": 6044,
  "not": 6045,
  "\u2581sujets": 6046,
  "\u2581ramy": 6047,
  "\u2581klimatu": 6048,
  "\u2581ISO": 6049,
  "\u2581wspomniane": 6050,
  "\u2581mog": 6051,
  "\u2581nazwisko": 6052,
  "78": 6053,
  "\u2581g\u00f3r": 6054,
  "ves": 6055,
  "\u2581klub": 6056,
  "\u2581Poli": 6057,
  "Wy": 6058,
  "\u2581consiste": 6059,
  "\u2581pracowa\u0142": 6060,
  "bija": 6061,
  "\u2581przypomina": 6062,
  "LE": 6063,
  "\u2581Banque": 6064,
  "\u2581pla\u017c": 6065,
  "uj\u0105cy": 6066,
  "\u2581autoris\u00e9": 6067,
  "j\u0105cym": 6068,
  "\u2581wersja": 6069,
  "\u2581rodzice": 6070,
  "\u2581dwu": 6071,
  "\u2581sk\u0142ad": 6072,
  "62": 6073,
  "\u2581Code": 6074,
  "sur": 6075,
  "\u2581m\u00e8tres": 6076,
  "\u2581significative": 6077,
  "\u2581europejskim": 6078,
  "oubli": 6079,
  "\u2581istniej\u0105cych": 6080,
  "\u00c4": 6081,
  "\u2581obok": 6082,
  "\u2581wiecz\u00f3r": 6083,
  "\u2581g\u0142ow\u0119": 6084,
  "\u2581d\u00e9c": 6085,
  "\u2581rybo\u0142\u00f3wstwa": 6086,
  "\u2581pr\u00e9venir": 6087,
  "\u2581samych": 6088,
  "\u2581pr\u00e9vus": 6089,
  "\u2581Jusqu": 6090,
  "PA": 6091,
  "extension": 6092,
  "syn": 6093,
  "stron": 6094,
  "uri": 6095,
  "\u2581logiciel": 6096,
  "\u2581climatique": 6097,
  "\u2581obowi\u0105zek": 6098,
  "\u2581local": 6099,
  "\u2581plan\u00e8te": 6100,
  "\u2581vacances": 6101,
  "\u2581\u00e9v\u00e9nements": 6102,
  "\u00e9chelle": 6103,
  "cen": 6104,
  "ssez": 6105,
  "\u2581Dane": 6106,
  "prowadzi\u0142": 6107,
  "mont": 6108,
  "\u2581rodzin": 6109,
  "\u2581wieczorem": 6110,
  "\u2581internetowej": 6111,
  "\u0105\u017c": 6112,
  "37": 6113,
  "\u2581strefy": 6114,
  "czni": 6115,
  "\u2581vieille": 6116,
  "\u2581charakterze": 6117,
  "\u2581Agencji": 6118,
  "\u2581oferuje": 6119,
  "\u258161": 6120,
  "rz\u0119d": 6121,
  "\u2581Fe": 6122,
  "op\u00e9ration": 6123,
  "\u2581restauracj": 6124,
  "\u2581savait": 6125,
  "\u2581brata": 6126,
  "\u2581Lors": 6127,
  "US": 6128,
  "\u2581walki": 6129,
  "\u2581zagro\u017cenia": 6130,
  "\u2581Pologne": 6131,
  "rin": 6132,
  "\u2581r\u00e9sultant": 6133,
  "\u2581Pass": 6134,
  "\u2581Strona": 6135,
  "\u2581renforcement": 6136,
  "\u2581kod": 6137,
  "\u2581wielki": 6138,
  "AM": 6139,
  "\u2581zdj\u0119cie": 6140,
  "rouille": 6141,
  "\u2581infrastructures": 6142,
  "bol": 6143,
  "\u2581inf\u00e9rieur": 6144,
  "\u2581kor": 6145,
  "dis": 6146,
  "rak": 6147,
  "\u2581Funduszu": 6148,
  "\u2581examen": 6149,
  "\u2581warzyw": 6150,
  "\u2581grupie": 6151,
  "87": 6152,
  "alcool": 6153,
  "\u2581Tre": 6154,
  "\u2581vraie": 6155,
  "iki": 6156,
  ".1.": 6157,
  "ista": 6158,
  "\u2581pr\u00eate": 6159,
  "\u0142ow": 6160,
  "1)": 6161,
  "\u2581demandeur": 6162,
  "\u2581trzeciego": 6163,
  "\u2581William": 6164,
  "\u00e9mission": 6165,
  "\u2581m\u0142odych": 6166,
  "\u2581zadania": 6167,
  "\u00ed": 6168,
  "\u25814:": 6169,
  "\u2581inclus": 6170,
  "\u2581conservation": 6171,
  "\u2581straci\u0142": 6172,
  "\u2581decyzje": 6173,
  "\u2581r\u00e9examen": 6174,
  "\u2581Zaburzeni": 6175,
  "\u2581okre\u015blonej": 6176,
  "zona": 6177,
  "MA": 6178,
  "\u2581heureuse": 6179,
  "\u2581powietrza": 6180,
  "\u2581jakich": 6181,
  "\u2581pen": 6182,
  "67": 6183,
  "\u2581Ameryki": 6184,
  "ook": 6185,
  "\u2581fixant": 6186,
  "\u2581Pa\u0144stwach": 6187,
  "\u2581pozwoli\u0107": 6188,
  "-2-": 6189,
  "\u2581ouverte": 6190,
  "5,": 6191,
  "the": 6192,
  "\u2581mi\u0119dzynarodowym": 6193,
  "itt": 6194,
  "\u2581acheter": 6195,
  "\u2581znak": 6196,
  "\u2581Skoro": 6197,
  "onym": 6198,
  "\u2581aient": 6199,
  "\u2581aim\u00e9": 6200,
  "\u2581certaine": 6201,
  "\u2581wi\u0119ksz\u0105": 6202,
  "\u2581strat": 6203,
  "\u2581przeznaczonych": 6204,
  "\u2581correspond": 6205,
  "\u2581przywozie": 6206,
  "max": 6207,
  "rz\u0105": 6208,
  "\u2581robi\u0105": 6209,
  "\u2581concern\u00e9e": 6210,
  "\u2581mog\u0142y": 6211,
  "\u2581gatunk\u00f3w": 6212,
  "\u2581znajom": 6213,
  "cki": 6214,
  "lair": 6215,
  "\u2581pi\u015bmie": 6216,
  "\u2581wyst\u0119powania": 6217,
  "\u2581Strony": 6218,
  "\u2581zr\u00f3wnowa\u017conego": 6219,
  "\u2581bleu": 6220,
  "\u2581zmian\u0119": 6221,
  "\u2581\u017by": 6222,
  "\u2581Communaut\u00e9s": 6223,
  "\u2581straci": 6224,
  "\u2581odpowiedniego": 6225,
  "\u2581indique": 6226,
  "\u2581Fils": 6227,
  "\u2581problemu": 6228,
  "\u258114.": 6229,
  "\u2581Red": 6230,
  "fait": 6231,
  "ujourd": 6232,
  "\u2581nowym": 6233,
  "\u2581priv\u00e9e": 6234,
  "\u2581netto": 6235,
  "low": 6236,
  "\u2581map": 6237,
  "\u2581interes": 6238,
  "\u2581panowie": 6239,
  "\u2581Pozosta\u0142e": 6240,
  "\u2581klinicznych": 6241,
  "\u2581accord\u00e9e": 6242,
  "\u2581gal": 6243,
  "tyczne": 6244,
  "\u2581\u00e9l\u00e9ment": 6245,
  "\u2581b\u00e9n\u00e9ficiaires": 6246,
  "\u2581battre": 6247,
  "\u2581tabeli": 6248,
  "\u2581koni": 6249,
  "czo": 6250,
  "\u2581unies": 6251,
  "ures": 6252,
  "\u2581Francji": 6253,
  "\u2581th\u00e9": 6254,
  "\u2581model": 6255,
  "SI": 6256,
  "\u2581graves": 6257,
  "RI": 6258,
  "\u2581staje": 6259,
  "\u2581Europejskim": 6260,
  "\u2581wdra\u017cania": 6261,
  "OL": 6262,
  "\u00f3wki": 6263,
  "\u2581apporter": 6264,
  "\u2581b\u00e9n\u00e9ficiaire": 6265,
  "\u2581normy": 6266,
  "\u2581Niekt\u00f3re": 6267,
  "\u2581Chrystusa": 6268,
  "\u2581CONSEIL": 6269,
  "\u2581(5)": 6270,
  "\u2581conception": 6271,
  "eaux": 6272,
  "\u2581ustanowione": 6273,
  "ave": 6274,
  "\u2581contr\u00f4ler": 6275,
  "9,": 6276,
  "yk": 6277,
  "eniem": 6278,
  "restrukturyzacji": 6279,
  "\u2581chat": 6280,
  "\u2581Wsp\u00f3lnot": 6281,
  "\u2581locales": 6282,
  "czn\u0105": 6283,
  "m\u0119cz": 6284,
  "\u2581zupe\u0142nie": 6285,
  "34": 6286,
  "\u2581sociales": 6287,
  ".7.": 6288,
  "93": 6289,
  "oire": 6290,
  "pul": 6291,
  "tom": 6292,
  "\u2581agencji": 6293,
  "\u2581livres": 6294,
  "gram": 6295,
  "zor": 6296,
  "\u2581Sous": 6297,
  "\u2581Doktor": 6298,
  "[": 6299,
  "\u2581zamiar": 6300,
  "mais": 6301,
  "\u2581patron": 6302,
  "\u2581d\u00e9finir": 6303,
  "\u2581\u015bcian": 6304,
  "\u2581w\u0142a\u015bciwie": 6305,
  "\u258111,": 6306,
  "avant": 6307,
  "\u2581r\u00e9el": 6308,
  "\u2581promet": 6309,
  "\u2581Kr\u00f3l": 6310,
  "lip": 6311,
  "\u2581accident": 6312,
  "\u2581Windows": 6313,
  "aides": 6314,
  "\u2581responsables": 6315,
  "ev": 6316,
  "\u25811992": 6317,
  "IL": 6318,
  "\u2581wyb\u00f3r": 6319,
  "\u2581Kod": 6320,
  "\u2581Tant": 6321,
  "\u2581d\u00e9range": 6322,
  "TM": 6323,
  "\u2581drugim": 6324,
  "\u2581fourniture": 6325,
  "ryn": 6326,
  "81": 6327,
  "\u2581specjaln": 6328,
  "\u0438": 6329,
  "\u2581(-": 6330,
  "prac": 6331,
  "aj\u0105c": 6332,
  "ok\u00f3\u0142": 6333,
  "\u0161": 6334,
  "\u2581w\u0142asno\u015bci": 6335,
  "cych": 6336,
  "\u2581m\u0119\u017ca": 6337,
  "\u2581szereg": 6338,
  "appeler": 6339,
  "\u2581voitures": 6340,
  "a\u00e9roport": 6341,
  "\u2581\u00e9tablir": 6342,
  "\u2581log": 6343,
  "ult": 6344,
  "\u2581apprendre": 6345,
  "\u2581r\u00e9cemment": 6346,
  "\u2581g\u0142\u00f3wnych": 6347,
  "\u2581oparte": 6348,
  "\u2581serez": 6349,
  "\u2581futur": 6350,
  "\u2581repas": 6351,
  "\u258158": 6352,
  "AG": 6353,
  "\u2581potrzebne": 6354,
  "86": 6355,
  "\u2581miesi\u0105c": 6356,
  "\u2581cartes": 6357,
  "jne": 6358,
  "\u2581Bas": 6359,
  "bierze": 6360,
  "\u2581fen\u00eatre": 6361,
  "agon": 6362,
  "\u2581nowa": 6363,
  "ef": 6364,
  "occuper": 6365,
  "\u2581cent": 6366,
  "\u2581Grupa": 6367,
  "\u2581opublikowaniu": 6368,
  "fen": 6369,
  "\u2581sorti": 6370,
  "l\u00e9e": 6371,
  "\u2581rural": 6372,
  "\u2581enti\u00e8rement": 6373,
  "\u2581multi": 6374,
  "omb": 6375,
  "\u2581flacon": 6376,
  "ben": 6377,
  "\u2581viennent": 6378,
  "\u2581Pomoc": 6379,
  "\u2581spotka": 6380,
  "\u2581chaleur": 6381,
  "\u2581tysi\u0119cy": 6382,
  "cc": 6383,
  "\u2581\u00e9gale": 6384,
  "\u2581sprawiedliwo\u015bci": 6385,
  "\u2581Obszar": 6386,
  "\u258104": 6387,
  "\u2581ras": 6388,
  "\u017adzi": 6389,
  "\u2581u\u017cy\u0107": 6390,
  "\u258159": 6391,
  "\u2581braci": 6392,
  "\u2581sprawia": 6393,
  "\u2581souhaite": 6394,
  "\u2581emploi": 6395,
  "72": 6396,
  "\u2581agent": 6397,
  "\u2581niezale\u017cnie": 6398,
  "iable": 6399,
  "owano": 6400,
  "\u2581Camp": 6401,
  "\u2581prendra": 6402,
  "\u2581recommand\u00e9": 6403,
  "\u2581roli": 6404,
  "cenia": 6405,
  "\u2581charg\u00e9": 6406,
  "\u2581og\u00f3lnego": 6407,
  "\u2581\u015bwiat\u0142o": 6408,
  "\u2581r\u00e9ellement": 6409,
  "\u2581pewnych": 6410,
  "PC": 6411,
  "-5": 6412,
  "\u2581imp": 6413,
  "\u2581d\u00e9faut": 6414,
  "\u2581najlepiej": 6415,
  "\u2581stwierdza": 6416,
  "\u2581passagers": 6417,
  "osa": 6418,
  "\u2581passage": 6419,
  "\u2581\u0142\u0105cznie": 6420,
  "\u2581dowody": 6421,
  "IC": 6422,
  "\u2581content": 6423,
  "chroni": 6424,
  "\u2581p\u00f3\u017ano": 6425,
  "\u2581liaison": 6426,
  "\u2581tworzenia": 6427,
  "\u2581v\u00e9ritable": 6428,
  "rzenie": 6429,
  "\u2581cud": 6430,
  "\u258167": 6431,
  "\u2581\u017cy": 6432,
  "pr": 6433,
  "\u2581Allemagne": 6434,
  "ybierz": 6435,
  "\u2581lo": 6436,
  "\u2581zapewniaj\u0105": 6437,
  "\u2581dochodzenia": 6438,
  "\u2581funkcjonowania": 6439,
  "\u2581artyku\u0142": 6440,
  "\u2581avocat": 6441,
  "\u2581Leur": 6442,
  "\u2581verra": 6443,
  "ding": 6444,
  "\u2581szkole": 6445,
  "\u2581poda\u0107": 6446,
  "\u2581naturel": 6447,
  "ney": 6448,
  "\u2581Trybuna\u0142": 6449,
  "\u2581statek": 6450,
  "\u2581Faut": 6451,
  "\u2581registre": 6452,
  "\u2581rodzaj\u00f3w": 6453,
  "82": 6454,
  "\u2581adultes": 6455,
  "\u0142ek": 6456,
  "nd": 6457,
  "\u2581regulaminu": 6458,
  ".6.": 6459,
  "\u2581odnosi": 6460,
  "\u2581w\u0119gla": 6461,
  "\u2581r\u00e9alis\u00e9": 6462,
  "nel": 6463,
  "\u2581badanie": 6464,
  "\u2581Wydaj": 6465,
  "\u2581dowiedzie\u0107": 6466,
  "\u2581integracji": 6467,
  "\u2581effectu\u00e9s": 6468,
  "\u2581polityka": 6469,
  "\u2581d\u00e9pend": 6470,
  "\u2581provisoire": 6471,
  "\u2581narz\u0119dzi": 6472,
  "\u2581poursuivre": 6473,
  "\u2581b\u00e9n\u00e9fice": 6474,
  "\u2581Dzieci": 6475,
  "\u00e9galit\u00e9": 6476,
  "\u258177": 6477,
  "\u2581pozostaje": 6478,
  "\u00e9tablir": 6479,
  "\u2581Tym": 6480,
  "\u2581powa\u017cne": 6481,
  "\u2581obywatelskiego": 6482,
  "\u2581Mas": 6483,
  "\u2581pr\u00f3buj": 6484,
  "\u2581godzin\u0119": 6485,
  "bili": 6486,
  "\u2581musieli": 6487,
  "\u2581dow\u00f3d": 6488,
  "\u2581Centre": 6489,
  "\u2581negocjacji": 6490,
  "\u2581Tru": 6491,
  "\u2581renseignements": 6492,
  "\u00e9taient": 6493,
  "\u2581objet": 6494,
  "\u2581charges": 6495,
  "\u0119ty": 6496,
  "\u2581znajduj\u0105": 6497,
  "\u2581d\u00e9fi": 6498,
  "FR": 6499,
  "\u2581\u00e9tablis": 6500,
  "\u2581kuchni": 6501,
  "\u2581obs\u0142ugi": 6502,
  "\u2581wprowadzania": 6503,
  "\u2581Ses": 6504,
  "imagine": 6505,
  "odpowiedzialno\u015b\u0107": 6506,
  "\u2581ver": 6507,
  "\u2581incroyable": 6508,
  "\u2581Rozwoju": 6509,
  "plan": 6510,
  "\u2581przysz\u0142o\u015b\u0107": 6511,
  "cznych": 6512,
  "nek": 6513,
  "\u2581Directive": 6514,
  "m\u00e9": 6515,
  "\u2581vouloir": 6516,
  "\u2581kraje": 6517,
  "\u2581fourni": 6518,
  "SA": 6519,
  "\u2581fournies": 6520,
  "\u2581r\u00e9gimes": 6521,
  "\u2581importance": 6522,
  "\u2581trwania": 6523,
  "\u2581dzi": 6524,
  "\u2581mleka": 6525,
  "\u2581gro": 6526,
  "Il": 6527,
  "ales": 6528,
  "\u2581Act": 6529,
  "alna": 6530,
  "\u2581surprise": 6531,
  "\u2581personelu": 6532,
  "leg": 6533,
  "\u258174": 6534,
  "\u25811234/2007": 6535,
  "4%": 6536,
  "\u2581totalement": 6537,
  "\u2581wyci\u0105g": 6538,
  "\u2581urz\u0105dzenie": 6539,
  "\u2581gazu": 6540,
  "AC": 6541,
  "emmen": 6542,
  "\u2581soin": 6543,
  "\u2581comportement": 6544,
  "wa\u017c": 6545,
  "\u2581znale\u017ali": 6546,
  "\u2581tests": 6547,
  "lement": 6548,
  "\u2581zna\u0107": 6549,
  "\u2581obc": 6550,
  "\u2581wybra\u0107": 6551,
  "PT": 6552,
  "inter": 6553,
  "\u2581punkcie": 6554,
  "\u0142o\u017cy": 6555,
  "\u2581maj\u0105cy": 6556,
  "sha": 6557,
  "\u2581przedstawiciel": 6558,
  "\u2581przedstawione": 6559,
  "cur": 6560,
  "\u2581Italie": 6561,
  "\u2581suspension": 6562,
  "enne": 6563,
  "\u2581przeznaczenia": 6564,
  "\u2581autobus": 6565,
  "\u2581\u017cy\u0142": 6566,
  "\u2581Ka\u017cd": 6567,
  "ages": 6568,
  "\u2581promis": 6569,
  "\u2581bruit": 6570,
  "\u258157": 6571,
  "\u2581sent": 6572,
  "\u2581zrozumie\u0107": 6573,
  "skim": 6574,
  "\u2581chant": 6575,
  "\u2581baisse": 6576,
  "\u2581collecte": 6577,
  "\u2581komisarz": 6578,
  "\u2581facilement": 6579,
  "\u2581\u00e9gal": 6580,
  "\u2581eks": 6581,
  "\u2581participants": 6582,
  "ima": 6583,
  "\u2581Charles": 6584,
  "\u2581konieczno\u015b\u0107": 6585,
  "illa": 6586,
  "\u2581\u00e9lectroniques": 6587,
  "\u2581paroles": 6588,
  "\u258182": 6589,
  "a\u0144ski": 6590,
  "\u2581annexes": 6591,
  "\u2581mog\u0142em": 6592,
  "\u00f4t": 6593,
  "\u2581Juli": 6594,
  "uv": 6595,
  "\u2581produire": 6596,
  "\u2581devais": 6597,
  "\u2581wal": 6598,
  "\u2581zakup": 6599,
  "tle": 6600,
  "\u2581codes": 6601,
  "\u2581cen\u0119": 6602,
  "\u2581r\u0119k\u0119": 6603,
  "71": 6604,
  "\u2581za\u015b": 6605,
  "LI": 6606,
  "\u2581Ang": 6607,
  "\u2581zwalczania": 6608,
  "\u2581laissez": 6609,
  "\u2581tekst": 6610,
  "\u2581przecie\u017c": 6611,
  "ml": 6612,
  "onu": 6613,
  "\u2581Europejskich": 6614,
  "\u2581interes\u00f3w": 6615,
  "nce": 6616,
  "\u258168": 6617,
  "\u2581conduit": 6618,
  "uj\u0105cych": 6619,
  "jrza\u0142": 6620,
  "\u2581Terre": 6621,
  "\u2581acte": 6622,
  "\u2581paquet": 6623,
  "\u2581podej\u015bcia": 6624,
  "\u2581S\u0105d": 6625,
  "\u2581Ann": 6626,
  ".12.": 6627,
  "\u2581zdaniem": 6628,
  "\u2581Oba": 6629,
  "ov": 6630,
  "\u2581objaw\u00f3w": 6631,
  "\u2581ustanawia": 6632,
  "\u2581fondamentaux": 6633,
  "\u2581huit": 6634,
  "\u2581prescriptions": 6635,
  "\u2581ustala": 6636,
  "\u2581u\u017cyciu": 6637,
  "\u2581tir\u00e9": 6638,
  "COM": 6639,
  "\u2581connaissances": 6640,
  "\u2581spo\u0142ecznego": 6641,
  "ni\u0105": 6642,
  "vent": 6643,
  "\u2581wysoko\u015b\u0107": 6644,
  "\u2581sk\u0142adania": 6645,
  "\u2581spotyka": 6646,
  "\u2581ador": 6647,
  "comm": 6648,
  "\u2581do\u015bwiadczenie": 6649,
  "siada": 6650,
  "\u2581wyst\u0119puje": 6651,
  "\u2581Mil": 6652,
  "\u2581zazwyczaj": 6653,
  "arki": 6654,
  "\u2581situations": 6655,
  "cale": 6656,
  "En": 6657,
  "nom": 6658,
  "\u2581d\u00e9finis": 6659,
  "\u2581man": 6660,
  "\u2581forces": 6661,
  "54": 6662,
  "pisz": 6663,
  "alnie": 6664,
  "\u2581g\u00e9rer": 6665,
  "\u2581respectivement": 6666,
  "Smith": 6667,
  "\u2581num\u00e9ros": 6668,
  "\u2581m\u0142odzie\u017cy": 6669,
  "\u2581r\u00f3\u017c": 6670,
  "\u2581Stany": 6671,
  "\u2581r\u00e9forme": 6672,
  "tout": 6673,
  "lony": 6674,
  "\u2581gotowy": 6675,
  "\u2581stanowi\u0107": 6676,
  "qua": 6677,
  "\u2581ven": 6678,
  "\u2581%": 6679,
  "\u2581priorit\u00e9": 6680,
  "\u2581podstawowe": 6681,
  "MS": 6682,
  "agent": 6683,
  "\u2581lekarzem": 6684,
  "\u2581faim": 6685,
  "sti": 6686,
  "\u25811%": 6687,
  "\u2581Przewodnicz\u0105cy": 6688,
  "\u2581r\u00e9soudre": 6689,
  "\u00e9li": 6690,
  "ko\u0142o": 6691,
  "\u2581enceinte": 6692,
  "\u2581nale\u017cno\u015bci": 6693,
  "\u2581trzecie": 6694,
  ".2.": 6695,
  "\u2581os": 6696,
  "w\u0105": 6697,
  "\u2581spotka\u0107": 6698,
  "\u2581okropn": 6699,
  "\u2581mia\u0142by": 6700,
  "\u2581trou": 6701,
  "\u2581savons": 6702,
  "rys": 6703,
  "\u2581oferty": 6704,
  "\u2581notice": 6705,
  "\u2581mod\u00e8les": 6706,
  "\u2581m\u00e9canismes": 6707,
  "\u2581fabricant": 6708,
  "pel": 6709,
  "\u2581opowiada": 6710,
  "hat": 6711,
  "cript": 6712,
  "habitude": 6713,
  "\u2581Maria": 6714,
  "\u2581soi": 6715,
  "cro": 6716,
  "\u2581terenie": 6717,
  "\u2581ADOPT\u00c9": 6718,
  "\u2581Bud": 6719,
  "\u2581zmniejszenia": 6720,
  "\u2581producteur": 6721,
  "\u2581facteur": 6722,
  "1%": 6723,
  "\u2581samotn": 6724,
  "oto": 6725,
  "auto": 6726,
  "\u2581swe": 6727,
  "ath": 6728,
  "58": 6729,
  "lew": 6730,
  "\u2581Sprawiedliwo\u015bci": 6731,
  "ime": 6732,
  "rot": 6733,
  "rodzi": 6734,
  "\u2581cena": 6735,
  "imp": 6736,
  "\u2581do\u015bwiadczenia": 6737,
  "\u2581dotycz\u0105c\u0105": 6738,
  "kowy": 6739,
  "\u2581\u2265": 6740,
  "KA": 6741,
  "\u2581kot": 6742,
  "\u2581antidumping": 6743,
  "OP": 6744,
  "\u2581images": 6745,
  "\u2581drugiego": 6746,
  "lit": 6747,
  "\u2581rzeczywisto\u015bci": 6748,
  "\u2581pourriez": 6749,
  "acznie": 6750,
  "\u2581effectu\u00e9e": 6751,
  "-6": 6752,
  "\u2581(3": 6753,
  "\u2581permettent": 6754,
  "\u2581juridiques": 6755,
  "\u2581minist\u00e8re": 6756,
  "intention": 6757,
  "\u2581sen": 6758,
  "\u2581Trois": 6759,
  "\u2581Ki": 6760,
  "existe": 6761,
  "\u2581odno\u015bnie": 6762,
  "\u2581c\u00e9r\u00e9ales": 6763,
  "wanie": 6764,
  "\u2581\u00e9lev\u00e9e": 6765,
  "\u2581szkody": 6766,
  "EM": 6767,
  "iti": 6768,
  "off": 6769,
  "\u2581Portugal": 6770,
  "\u2581divers": 6771,
  "\u2581fournit": 6772,
  "\u2581Vol": 6773,
  "\u2581actif": 6774,
  "\u2581ofert": 6775,
  "\u2581uszczerbku": 6776,
  "engagement": 6777,
  "zbyt": 6778,
  "\u2581Nos": 6779,
  "\u2581disait": 6780,
  "\u2581podaniu": 6781,
  "anti": 6782,
  "\u2581absolu": 6783,
  "\u2581--": 6784,
  "\u2581dotycz\u0105ca": 6785,
  "martwi": 6786,
  "\u258116.": 6787,
  "iej": 6788,
  "eh": 6789,
  "\u0153uvre": 6790,
  "tt": 6791,
  "\u2581m\u00f3c": 6792,
  "\u2581flux": 6793,
  "\u2581obszar": 6794,
  "\u2581stade": 6795,
  "\u2581doros\u0142ych": 6796,
  "luz": 6797,
  "\u2581rodzic\u00f3w": 6798,
  "oul": 6799,
  "\u2581Szko": 6800,
  "\u2581krok": 6801,
  "\u2581Jer": 6802,
  "\u2581podmiot": 6803,
  "\u2581przetwarzania": 6804,
  "arriver": 6805,
  "\u00e6": 6806,
  "puszcz": 6807,
  "ile": 6808,
  "\u2581przychodzi": 6809,
  "\u2581d\u00e9couvert": 6810,
  "\u2581Grand": 6811,
  "\u2581ojcem": 6812,
  "3)": 6813,
  "\u2581grosse": 6814,
  "\u2581insuliny": 6815,
  "52": 6816,
  "\u2581w\u00f3wczas": 6817,
  "\u2581ustalone": 6818,
  "\u2581principale": 6819,
  "Pa": 6820,
  "\u2581najlepszych": 6821,
  "cus": 6822,
  "avi": 6823,
  "\u00e9poque": 6824,
  "\u2581drog\u0105": 6825,
  "\u258198": 6826,
  "\u2581pertes": 6827,
  "gel": 6828,
  "\u2581poudre": 6829,
  "\u2581symp": 6830,
  "\u2581Prenez": 6831,
  "\u258125%": 6832,
  "\u2581rappeler": 6833,
  "kup": 6834,
  "\u258171": 6835,
  "\u2581rozkaz": 6836,
  "kr\u0119t": 6837,
  "ID": 6838,
  "bieg": 6839,
  "\u2581kryzys": 6840,
  "\u2581augmenter": 6841,
  "\u2581dotycz\u0105": 6842,
  "\u2581r\u00e9gional": 6843,
  "\u2581statki": 6844,
  "\u2581skuteczne": 6845,
  "\u258191": 6846,
  "\u2581dowod\u00f3w": 6847,
  "\u2581wykorzysta\u0107": 6848,
  "\u2581uzna\u0107": 6849,
  "\u2581Sol": 6850,
  "\u2581termin\u00e9": 6851,
  "trwa": 6852,
  "\u2581Cz\u0142onkowskiego": 6853,
  "\u2581Sauf": 6854,
  "iny": 6855,
  "mit": 6856,
  "\u2581roboty": 6857,
  "\u2581effectu\u00e9": 6858,
  "\u2581odst\u0119pstwa": 6859,
  "\u2581organes": 6860,
  "\u2581physiques": 6861,
  "\u2581cierpi": 6862,
  "\u2581Andre": 6863,
  "oper": 6864,
  "\u2581Wielkie": 6865,
  "\u2581miesi\u0105ca": 6866,
  "\u2581\u017caden": 6867,
  "\u2581professionnels": 6868,
  "\u2581tajemnic": 6869,
  "\u2581okazj": 6870,
  "\u2581policji": 6871,
  "\u2581stocks": 6872,
  "\u2581joie": 6873,
  "\u2581ogranicze\u0144": 6874,
  "\u2581strona": 6875,
  "\u2581ajout\u00e9e": 6876,
  "\u2581osob\u0105": 6877,
  "\u2581Wi": 6878,
  "\u2581m\u0142od": 6879,
  "\u2581Tar": 6880,
  "\u2581s\u0142u\u017cb": 6881,
  "\u2581Cel": 6882,
  "\u2581s\u00e9lection": 6883,
  "\u2581conscience": 6884,
  "\u2581chanson": 6885,
  "EK": 6886,
  "miesza": 6887,
  "\u2581systemie": 6888,
  "\u2581s\u0142\u00f3w": 6889,
  "\u2581maritime": 6890,
  "\u2581villes": 6891,
  "\u2581ocenie": 6892,
  "CI": 6893,
  "\u2581voudr": 6894,
  "\u2581Wiele": 6895,
  "\u00f6": 6896,
  "\u2581ponadto": 6897,
  "\u2581trwa": 6898,
  "\u2581zmieni": 6899,
  "\u2581dniach": 6900,
  "\u2581politycznych": 6901,
  "\u2581correctement": 6902,
  "\u2581servi": 6903,
  "\u2581sam\u0105": 6904,
  "\u2581\u00e9lectrique": 6905,
  "\u2581ajout\u00e9": 6906,
  "\u2581meilleures": 6907,
  "74": 6908,
  "najmniej": 6909,
  "\u2581pertinentes": 6910,
  "\u2581Inc": 6911,
  "\u2581dodatku": 6912,
  "\u2581a\u00e9rien": 6913,
  "\u2581dobrej": 6914,
  "\u2581forum": 6915,
  "dor": 6916,
  "\u2581g\u00f3r\u0119": 6917,
  "\u2581v\u00eatements": 6918,
  "\u2581zbrodni": 6919,
  "\u2581marge": 6920,
  "\u2581Gr\u00e8ce": 6921,
  "\u2581lotniczego": 6922,
  "\u2581my\u015bl\u0105": 6923,
  "\u2581wa\u017cno\u015bci": 6924,
  "\u2581unijnych": 6925,
  "\u00e9v": 6926,
  "\u2581vaisseau": 6927,
  ".5.": 6928,
  "\u2581tabletek": 6929,
  "\u2581mobilit\u00e9": 6930,
  ".10.": 6931,
  "\u2581r\u00e9cup\u00e9rer": 6932,
  "bul": 6933,
  "\u2581niewy": 6934,
  "\u2581odpowiedzialne": 6935,
  "\u2581recommandation": 6936,
  "\u2581\u00e9nonc\u00e9es": 6937,
  "\u2581Trzy": 6938,
  "\u2581zam\u00f3wie\u0144": 6939,
  "\u2581niezb\u0119dnych": 6940,
  "dzia": 6941,
  "\u2581n\u00e9": 6942,
  "\u2581okre\u015blon\u0105": 6943,
  "2000": 6944,
  "\u2581zaj\u0105\u0107": 6945,
  "\u2581ravi": 6946,
  "\u2581dobr\u0105": 6947,
  "\u2581przewidzianych": 6948,
  "alis": 6949,
  "\u2581arr\u00eat": 6950,
  "\u2581oprogramowania": 6951,
  "4.": 6952,
  "\u2581ska": 6953,
  "\u2581info": 6954,
  "\u2581kontrol\u0119": 6955,
  "\u2581permettra": 6956,
  "\u2581twarzy": 6957,
  "\u2581adopter": 6958,
  "\u2581ksi\u0105\u017ck": 6959,
  "\u2581wsp\u00f3\u0142prac\u0119": 6960,
  "\u2581zobaczy\u0142": 6961,
  "\u2581consulter": 6962,
  "\u2581Mimo": 6963,
  "\u2581orale": 6964,
  "\u2581duchow": 6965,
  "tandis": 6966,
  "\u2581bank": 6967,
  "\u2581projekty": 6968,
  "\u00fc": 6969,
  "\u2581kwiat": 6970,
  "\u2581wdro\u017cenia": 6971,
  "Tak": 6972,
  "RR": 6973,
  "\u2581chiffres": 6974,
  "\u2581menace": 6975,
  "\u2581mixte": 6976,
  "affaires": 6977,
  "\u2581Centrum": 6978,
  "\u2581Dzia\u0142ania": 6979,
  "\u2581w\u0142a\u015bciwym": 6980,
  "\u2581assure": 6981,
  "ni\u017c": 6982,
  "\u258166": 6983,
  "\u2581secours": 6984,
  "\u2581ci\u0119\u017cko": 6985,
  "\u2581Przepisy": 6986,
  "\u2581Bruksela": 6987,
  "\u2581dossiers": 6988,
  "\u2581patrzy": 6989,
  "\u258191/414/": 6990,
  "\u2581przesz\u0142o\u015bci": 6991,
  "\u2581mi\u0119sa": 6992,
  "AP": 6993,
  "\u2581favoriser": 6994,
  "sin": 6995,
  "ert": 6996,
  "agn": 6997,
  "\u2581]": 6998,
  "\u258173": 6999,
  "\u00d3W": 7000,
  "\u2581profit": 7001,
  "\u2581miast": 7002,
  "yw": 7003,
  "\u25814.2": 7004,
  "\u2581brzmieniu": 7005,
  "\u2581spotka\u0142": 7006,
  "\u2581limit\u00e9e": 7007,
  "\u2581rozszerzenia": 7008,
  "\u2581cudown": 7009,
  "\u2581MISE": 7010,
  "\u2581Doc": 7011,
  "ient": 7012,
  "Re": 7013,
  "\u2581okre\u015blenia": 7014,
  "\u2581Chin": 7015,
  "\u2581adopt\u00e9es": 7016,
  "kcja": 7017,
  "czyni": 7018,
  "\u2581permanent": 7019,
  "\u2581ka\u017cde": 7020,
  "\u2581koordynacji": 7021,
  "\u2581grupa": 7022,
  "\u2581vendre": 7023,
  "\u2581autorit\u00e9": 7024,
  "\u2581d\u00f3\u0142": 7025,
  "63": 7026,
  "\u2581GmbH": 7027,
  "\u2581pr\u00e9cise": 7028,
  "n\u0119\u0142o": 7029,
  "\u2581bieg": 7030,
  "\u2581pe": 7031,
  "\u2581quartier": 7032,
  "\u2581ponowne": 7033,
  "ro\u017c": 7034,
  "\u2581portes": 7035,
  "\u2581\u2264": 7036,
  "\u2581dokona\u0107": 7037,
  "\u2581\u00c9coutez": 7038,
  "\u2581pr\u00e9f\u00e8re": 7039,
  "LA": 7040,
  "\u2581ordinateur": 7041,
  "\u2581podzi\u0119kowa": 7042,
  "\u2581sami": 7043,
  "\u2581naukowych": 7044,
  "bla": 7045,
  "\u2581pay\u00e9": 7046,
  "\u2581dawk\u0119": 7047,
  "\u2581Attention": 7048,
  "\u2581principales": 7049,
  "vir": 7050,
  "\u2581d\u00e9couvrir": 7051,
  "\u2581tranquille": 7052,
  "\u2581zastosowaniem": 7053,
  "\u2581kap": 7054,
  "\u2581chinois": 7055,
  "\u2581du\u017cy": 7056,
  "\u2581cadeau": 7057,
  "\u2581norme": 7058,
  "\u2581kolejne": 7059,
  "\u2581technicznej": 7060,
  "ela": 7061,
  "pour": 7062,
  "skiego": 7063,
  "daje": 7064,
  "\u2581uprawnienia": 7065,
  "\u2581congr\u00e9gation": 7066,
  "hen": 7067,
  "\u2581m\u00e9": 7068,
  "\u2581umar\u0142": 7069,
  "\u2581achet\u00e9": 7070,
  "\u2581cible": 7071,
  "\u2581op\u00e9ration": 7072,
  "\u2581kwestie": 7073,
  "\u2581akt\u00f3w": 7074,
  "ram": 7075,
  "yka": 7076,
  "\u2581Parfois": 7077,
  "\u2581associ\u00e9": 7078,
  "introduction": 7079,
  "\u2581bierze": 7080,
  "\u2581Street": 7081,
  "budowa": 7082,
  "\u2581r\u00e9guli\u00e8rement": 7083,
  "niec": 7084,
  "\u2581przyjdzie": 7085,
  "\u2581offrir": 7086,
  "\u00e9ni": 7087,
  "\u2581fix\u00e9e": 7088,
  "zyd": 7089,
  "\u2581zmieniaj\u0105ce": 7090,
  "onnerie": 7091,
  "\u2581ko\u0144czy": 7092,
  "TS": 7093,
  "\u2581dar": 7094,
  "wszy": 7095,
  "\u2581nazw\u0119": 7096,
  "pokoi": 7097,
  "\u2581Ani": 7098,
  "\u2581Messie": 7099,
  "\u258103": 7100,
  "\u2581mikro": 7101,
  "\u2581performance": 7102,
  "\u2581d\u00e9fis": 7103,
  "\u2581mono": 7104,
  "\u2581bless\u00e9": 7105,
  "\u2581kryzysu": 7106,
  "\u258130%": 7107,
  "\u2581wynik": 7108,
  "\u2581mention": 7109,
  "\u2581polega": 7110,
  "\u2581Prix": 7111,
  "\u258186": 7112,
  "czenia": 7113,
  "\u2581post\u0119powanie": 7114,
  "EC": 7115,
  "rou": 7116,
  "\u2581ustali\u0107": 7117,
  "\u2581conserver": 7118,
  "\u2581Bor": 7119,
  "\u2581Fac": 7120,
  "\u2581w\u0142a\u015bciwo\u015bci": 7121,
  "\u2581niezw\u0142ocznie": 7122,
  "\u2581prosto": 7123,
  "\u2581liquide": 7124,
  "\u2581Beaucoup": 7125,
  "\u2581signes": 7126,
  "\u0141": 7127,
  "\u2581chroni\u0107": 7128,
  "\u2581prawdziwe": 7129,
  "\u2581zastanawia": 7130,
  "\u2581wprowadzi\u0107": 7131,
  "\u2581cech": 7132,
  "CAS": 7133,
  "installation": 7134,
  "\u2581powtarza": 7135,
  "\u2581szczeg\u00f3lnych": 7136,
  "&": 7137,
  "\u2581pokaza\u0107": 7138,
  "\u2581sache": 7139,
  "obtenir": 7140,
  "main": 7141,
  "\u2581fonctionne": 7142,
  "nos": 7143,
  "\u2581spo\u0142eczno\u015bci": 7144,
  "tworzy": 7145,
  "lant": 7146,
  "\u2581d\u00e9b": 7147,
  "\u2581procesie": 7148,
  "\u2581ca\u0142a": 7149,
  "le\u017c": 7150,
  "skich": 7151,
  "\u2581jako\u015b\u0107": 7152,
  "n\u00f3w": 7153,
  "\u2581noms": 7154,
  "\u2581wyda": 7155,
  "\u2581OD": 7156,
  "\u2581id\u00e9es": 7157,
  "\u2581pr\u00e9f\u00e9r\u00e9": 7158,
  "\u2581Carl": 7159,
  "augmentation": 7160,
  "\u2581li\u00e9": 7161,
  "\u2581wspieranie": 7162,
  "cznie": 7163,
  "\u2581lotniczych": 7164,
  "\u2581wynikaj\u0105cych": 7165,
  "zem": 7166,
  "rent": 7167,
  "\u2581extr\u00eame": 7168,
  "\u258163": 7169,
  "\u2581mld": 7170,
  "----------------": 7171,
  "\u2581elektrycznej": 7172,
  "\u2581kupi\u0107": 7173,
  "\u2581efficaces": 7174,
  "\u2581Bre": 7175,
  "\u2581fond\u00e9e": 7176,
  "\u2581Fra": 7177,
  "\u2581wydatki": 7178,
  "\u2581Petit": 7179,
  "COD": 7180,
  "\u2581paliwa": 7181,
  "\u2581stosowany": 7182,
  "vez": 7183,
  "\u2581Pri": 7184,
  "\u2581conf\u00e9rence": 7185,
  "\u2581coucher": 7186,
  "\u2581Berlin": 7187,
  "\u2581familles": 7188,
  "\u2581organizacje": 7189,
  "\u2581biura": 7190,
  "\u2581nieco": 7191,
  "\u2581korzystania": 7192,
  "\u00fbt": 7193,
  "\u2581umo\u017cliwi\u0107": 7194,
  "dia": 7195,
  "ori": 7196,
  "\u2581trudno": 7197,
  "\u2581pose": 7198,
  "\u2581sauv\u00e9": 7199,
  "\u2581emp\u00eacher": 7200,
  "\u2581znaczne": 7201,
  "zniszcz": 7202,
  "\u2581rapporteur": 7203,
  "\u2581augment\u00e9": 7204,
  "pain": 7205,
  "\u2581potrzebowa\u0142": 7206,
  "\u2581G\u00e9n": 7207,
  "\u2581dobrego": 7208,
  "\u2581listy": 7209,
  "\u2581telefonu": 7210,
  "\u2581Sh": 7211,
  "\u2581p\u0142ci": 7212,
  "\u2581rodzin\u0119": 7213,
  "\u2581coupe": 7214,
  "ON": 7215,
  "mir": 7216,
  "\u2581kwot": 7217,
  "\u2581quitt\u00e9": 7218,
  "\u2581Inter": 7219,
  "\u2581podlegaj\u0105": 7220,
  "gni": 7221,
  "\u2581unijnego": 7222,
  "IR": 7223,
  "\u2581zastosowaniu": 7224,
  "\u2581NIE": 7225,
  "ban": 7226,
  "\u2581Ant": 7227,
  "aires": 7228,
  "san": 7229,
  "\u2581arriv\u00e9e": 7230,
  "\u2581pi\u0119kne": 7231,
  "uve": 7232,
  "przed": 7233,
  "\u2581Belgique": 7234,
  "\u2581uwzgl\u0119dnia": 7235,
  "\u2581zawartych": 7236,
  "\u2581\u00e9conomie": 7237,
  "\u2581chasse": 7238,
  "\u2581programie": 7239,
  "\u2581zesp\u00f3\u0142": 7240,
  "\u2581zmar\u0142": 7241,
  "2%": 7242,
  "\u2581Ass": 7243,
  "\u258112,": 7244,
  "\u2581couvre": 7245,
  "\u2581cancer": 7246,
  "\u2581pyta\u0144": 7247,
  "\u2581recommand\u00e9e": 7248,
  "\u2581web": 7249,
  "\u2581aviez": 7250,
  "\u2581kolei": 7251,
  "wad": 7252,
  "\u25811993": 7253,
  "\u2581porad": 7254,
  "\u2581zachowania": 7255,
  "prosi\u0107": 7256,
  "\u2581sanctions": 7257,
  "\u2581lettres": 7258,
  "olu": 7259,
  "\u0142\u00f3w": 7260,
  "\u2581glin": 7261,
  "\u2581fran\u00e7ais": 7262,
  "\u2581int\u00e9ress\u00e9es": 7263,
  "\u2581g\u0142osu": 7264,
  "\u2581certification": 7265,
  "\u2581vert": 7266,
  "\u2581Uwaga": 7267,
  "terre": 7268,
  "\u2581neutr": 7269,
  "widz": 7270,
  "\u2581\u015brodowisko": 7271,
  "spiesz": 7272,
  "\u2581TFUE": 7273,
  "\u2581si\u0142": 7274,
  "mb": 7275,
  "\u2581Dzi\u015b": 7276,
  "\u2581sprzeda\u017c": 7277,
  "kowa": 7278,
  "\u2581inicjatyw": 7279,
  "\u2581podj\u0119cia": 7280,
  "\u2581pa\u0144stwom": 7281,
  "\u2581disais": 7282,
  "tym": 7283,
  "\u2581kla": 7284,
  "\u2581tort": 7285,
  "\u2581carbone": 7286,
  "mant": 7287,
  "\u2581ustalania": 7288,
  "\u2581Ferm": 7289,
  "liby\u015bmy": 7290,
  "\u2581allant": 7291,
  "\u2581itp": 7292,
  "\u2581przypadki": 7293,
  "\u2581ma\u0142a": 7294,
  "rgi": 7295,
  "\u2581op\u0142aty": 7296,
  "\u2581RE": 7297,
  "\u2581fallait": 7298,
  "\u2581accept\u00e9": 7299,
  "\u2581swych": 7300,
  "ya": 7301,
  "\u2581monter": 7302,
  "\u2581niepo\u017c\u0105danych": 7303,
  "\u2581przeszkadza": 7304,
  "\u2581specjalne": 7305,
  "gno": 7306,
  "\u2581chimiques": 7307,
  "\u2581concentrations": 7308,
  "\u2581korzysta\u0107": 7309,
  "jo": 7310,
  "\u0441": 7311,
  "\u258105": 7312,
  "azy": 7313,
  "\u2581dostosowania": 7314,
  "\u2581Max": 7315,
  "\u2581u\u017cywa\u0107": 7316,
  "\u2581wyra\u017ca": 7317,
  "\u2581\u00e9tablit": 7318,
  "cem": 7319,
  "\u2581Wystarczy": 7320,
  "ssi": 7321,
  "\u2581pareil": 7322,
  "FI": 7323,
  "\u2581m\u00e9moire": 7324,
  "z\u0105": 7325,
  "\u2581z\u0142ego": 7326,
  "\u2581dimension": 7327,
  "czym": 7328,
  "achat": 7329,
  "gh": 7330,
  "\u0142od": 7331,
  "\u2581kszta\u0142cenia": 7332,
  "\u2581800": 7333,
  "\u2581ustanawiaj\u0105cego": 7334,
  "\u2581Bureau": 7335,
  "vrions": 7336,
  "\u2581discuter": 7337,
  "\u2581akcji": 7338,
  "\u2581dotycz\u0105cym": 7339,
  "\u2581okre\u015blenie": 7340,
  "\u2581r\u00e9vision": 7341,
  "\u2581umys\u0142": 7342,
  "\u2581skali": 7343,
  "\u2581ordres": 7344,
  "\u2581vent": 7345,
  "\u2581odpowiedni": 7346,
  "\u2581Louis": 7347,
  "\u2581g\u0142owie": 7348,
  "ual": 7349,
  "\u2581d\u00e9sormais": 7350,
  "\u2581don": 7351,
  "\u2581Gotow": 7352,
  "\u2581voies": 7353,
  "\u2581karty": 7354,
  "\u2581wielkie": 7355,
  "\u2581efektywno\u015bci": 7356,
  "\u25814.4": 7357,
  "ition": 7358,
  "liwe": 7359,
  "ase": 7360,
  "kochan": 7361,
  "\u2581jardin": 7362,
  "dawa\u0107": 7363,
  "\u258197": 7364,
  "\u2581comp\u00e9tence": 7365,
  "\u2581remercier": 7366,
  "\u2581Zanim": 7367,
  "\u2581NINIEJSZ": 7368,
  "9%": 7369,
  "serv": 7370,
  "\u2581przejrzysto\u015bci": 7371,
  "\u2581veuillez": 7372,
  "environ": 7373,
  "ckie": 7374,
  "lepsza": 7375,
  "\u2581Nowy": 7376,
  "\u2581chcia\u0142aby": 7377,
  "\u2581compl\u00e9mentaires": 7378,
  "czu\u0107": 7379,
  "konkurencyjno\u015bci": 7380,
  "\u2581mener": 7381,
  "\u2581l\u00e2che": 7382,
  "\u2581d\u00e9fini": 7383,
  "ika": 7384,
  "\u2581odpowiednim": 7385,
  "are": 7386,
  "\u2581plec": 7387,
  "\u2581Bio": 7388,
  "pil": 7389,
  "\u2581couple": 7390,
  "dan": 7391,
  "poli": 7392,
  "donne": 7393,
  "\u2581CHAPITRE": 7394,
  "\u00e9coute": 7395,
  "\u2581Tour": 7396,
  "m\u00e8re": 7397,
  "\u2581ocena": 7398,
  "\u2581szcz\u0119\u015bliw": 7399,
  "\u2581niepo": 7400,
  "\u2581zalecenia": 7401,
  "\u2581ext\u00e9rieur": 7402,
  "\u2581zwi\u0119kszy\u0107": 7403,
  "\u2581Veuillez": 7404,
  "\u2581administrative": 7405,
  "\u2581devront": 7406,
  "\u2581tabletki": 7407,
  "\u2581niemo\u017cliwe": 7408,
  "znacz": 7409,
  "\u2581journal": 7410,
  "\u2581dotycz\u0105cymi": 7411,
  "\u2581[3],": 7412,
  "\u2581Ekonomiczno": 7413,
  "za\u0142": 7414,
  "\u2581Taki": 7415,
  "\u2581psycho": 7416,
  "\u2581r\u00e9gionale": 7417,
  "hl": 7418,
  "ujcie": 7419,
  "ailleurs": 7420,
  "\u2581Czasami": 7421,
  "navir": 7422,
  "\u2581dusz": 7423,
  "stro": 7424,
  "\u03bf": 7425,
  "\u2581Bel": 7426,
  "dom": 7427,
  "\u2581You": 7428,
  "\u2581communications": 7429,
  "\u2581sert": 7430,
  "\u258176": 7431,
  "\u2581savent": 7432,
  "\u25813)": 7433,
  "\u2581commercial": 7434,
  "obb": 7435,
  "\u2581g\u00e9n\u00e9raux": 7436,
  "icule": 7437,
  "\u2581organisme": 7438,
  "prowadzi": 7439,
  "\u2581ust\u0119p": 7440,
  "field": 7441,
  "\u2581atak": 7442,
  "\u2581num\u00e9rique": 7443,
  "esti": 7444,
  "wstrzyma\u0107": 7445,
  "wa\u017cnie": 7446,
  "essay": 7447,
  "\u2581wymagaj\u0105": 7448,
  "\u2581europejskie": 7449,
  "\u2581sprawozda\u0144": 7450,
  "\u2581Mur": 7451,
  "\u2581materia\u0142u": 7452,
  "\u2581unikn\u0105\u0107": 7453,
  "\u2581magazyn": 7454,
  "\u2581dzia\u0142a\u0107": 7455,
  "\u2581obowi\u0105zku": 7456,
  "\u2581rozwi\u0105za\u0144": 7457,
  "\u2581w\u0142asny": 7458,
  "\u258199": 7459,
  "\u2581po\u0142\u0105czenia": 7460,
  "uit": 7461,
  "\u2581spo\u0142eczne": 7462,
  "\u2581gagne": 7463,
  "\u2581cardiaque": 7464,
  "\u2581opiera": 7465,
  "attention": 7466,
  "\u2581fibres": 7467,
  "\u2581Coll": 7468,
  "\u2581Kapitan": 7469,
  "bis": 7470,
  "\u0144stwo": 7471,
  "\u2581du\u017cych": 7472,
  "\u2581terminu": 7473,
  "\u2581Cz\u0119sto": 7474,
  "szukiwa": 7475,
  "\u258169": 7476,
  "homologation": 7477,
  "\u2581spe\u0142nione": 7478,
  "\u2581r\u00e9alis\u00e9s": 7479,
  "rs": 7480,
  "\u2581Numer": 7481,
  "\u258178": 7482,
  "rozumia": 7483,
  "p\u0142aci": 7484,
  "da\u0107": 7485,
  "\u2581dokumentu": 7486,
  "\u2581internationaux": 7487,
  "\u2581s\u00fbret\u00e9": 7488,
  "\u2581Lui": 7489,
  "\u2581s\u0105d": 7490,
  "it\u00e9s": 7491,
  "\u2581puisque": 7492,
  "\u2581hauteur": 7493,
  "IM": 7494,
  "embra": 7495,
  "\u2581pow\u00f3d": 7496,
  "\u2581expliquer": 7497,
  "\u2581p\u00e9riodes": 7498,
  "h\u00e9": 7499,
  "lay": 7500,
  "\u017c\u0105": 7501,
  "\u2581niczym": 7502,
  "avec": 7503,
  "Bas": 7504,
  "ather": 7505,
  "\u2581approuv\u00e9": 7506,
  "\u2581mog\u0142yby": 7507,
  "otte": 7508,
  "\u2581Ya": 7509,
  "\u2581szczeg\u00f3\u0142owych": 7510,
  "\u25812.1": 7511,
  "MP": 7512,
  "\u2581los": 7513,
  "amus": 7514,
  "accueil": 7515,
  "\u2581oeuvre": 7516,
  "\u2581samochod\u00f3w": 7517,
  "\u2581aurez": 7518,
  "\u2581rozwi\u0105zanie": 7519,
  "\u2581r\u00e9duit": 7520,
  "/2007": 7521,
  "uta": 7522,
  "83": 7523,
  "ax": 7524,
  "\u2581dotyka": 7525,
  "\u2581ka\u017cd\u0105": 7526,
  "\u2581Zatem": 7527,
  "euses": 7528,
  "\u2581znalaz\u0142a": 7529,
  "\u2581viendra": 7530,
  "\u2581utrzymania": 7531,
  "\u2581Nr": 7532,
  "\u00d3": 7533,
  "\u2581osobowych": 7534,
  "bert": 7535,
  "esse": 7536,
  "\u2581\u00e9lev\u00e9s": 7537,
  "\u2581invit\u00e9": 7538,
  "\u2581go\u00fbt": 7539,
  "\u2581instructions": 7540,
  "\u2581produktem": 7541,
  "\u2581rejestracji": 7542,
  "\u2581trzyma\u0107": 7543,
  "\u2581carri\u00e8re": 7544,
  "\u2581Niestety": 7545,
  "\u00e9g": 7546,
  "\u2581parvenir": 7547,
  "\u2581rid": 7548,
  "\u2581Ger": 7549,
  "\u2581auquel": 7550,
  "\u2581stopnia": 7551,
  "bra\u0142": 7552,
  "\u2581Za\u0142\u0105cznik": 7553,
  "2008": 7554,
  "\u2581dany": 7555,
  "\u2581consid\u00e9r\u00e9s": 7556,
  "emb": 7557,
  "\u2581Trans": 7558,
  "\u2581zadowoleniem": 7559,
  "ci\u0105ga": 7560,
  "\u2581etapie": 7561,
  "\u2581Post": 7562,
  "2014": 7563,
  "nat": 7564,
  "kuje": 7565,
  "\u2581r\u00e9actions": 7566,
  "\u2581Suiv": 7567,
  "\u2581gracz": 7568,
  "\u2581li\u00e9e": 7569,
  "\u2581Ouvre": 7570,
  "\u2581essaie": 7571,
  "\u2581obejmowa\u0107": 7572,
  "\u2581kontrol\u0105": 7573,
  "\u2581podawania": 7574,
  "\u2581colonne": 7575,
  "\u2581przyczyn": 7576,
  "s\u0142u\u017c": 7577,
  "\u2581podkre\u015bla": 7578,
  "\u2581przedstawi\u0107": 7579,
  "\u2581nast\u0119pnego": 7580,
  "ald": 7581,
  "\u2581climat": 7582,
  "\u2581\u00e9tablissement": 7583,
  "OT": 7584,
  "onna": 7585,
  "\u2581zabra\u0142": 7586,
  "\u2581satellite": 7587,
  "\u2581sta\u0142e": 7588,
  "\u2581zwrot": 7589,
  "\u2581anniversaire": 7590,
  "liwy": 7591,
  "\u2581c\u00f3rka": 7592,
  "\u2581actuel": 7593,
  "\u2581d\u00e9riv\u00e9s": 7594,
  "asile": 7595,
  "\u2581zadanie": 7596,
  "dej\u015b\u0107": 7597,
  "pust": 7598,
  "CZ": 7599,
  "\u2581Central": 7600,
  "\u2581wojny": 7601,
  "\u2581prouver": 7602,
  "\u2581Mad": 7603,
  "nice": 7604,
  "\u2581Ray": 7605,
  "lak": 7606,
  "\u2581troubles": 7607,
  "\u2581zatrzyma": 7608,
  "\u2581invite": 7609,
  "\u2581million": 7610,
  "\u2581ho": 7611,
  "mas": 7612,
  "\u00f3\u0142": 7613,
  "\u2581Rapport": 7614,
  "\u2581gouvernance": 7615,
  "excuse": 7616,
  "\u2581czyta": 7617,
  "\u2581j\u0119zyk": 7618,
  "\u2581p\u0142uc": 7619,
  "szych": 7620,
  "\u2581Pawe\u0142": 7621,
  "\u2581energetycznej": 7622,
  "\u2581sp\u00f3\u017ani": 7623,
  "\u2581tenue": 7624,
  "\u2581effectivement": 7625,
  "unit\u00e9": 7626,
  "\u2581professionnel": 7627,
  "\u2581voler": 7628,
  "\u2581zostali": 7629,
  "\u2581administr\u00e9": 7630,
  "\u2581woli": 7631,
  "\u2581(6)": 7632,
  "\u2581liens": 7633,
  "\u043e": 7634,
  "\u2581via": 7635,
  "\u2581at": 7636,
  "\u2581zawieraj\u0105": 7637,
  "\u2581reakcji": 7638,
  "lok": 7639,
  "\u2581continu": 7640,
  "\u2581Gran": 7641,
  "\u2581tch\u00e8que": 7642,
  "EX": 7643,
  "2001": 7644,
  "\u2581spodziewa": 7645,
  "\u2581stabilno\u015bci": 7646,
  "twierdz": 7647,
  "sper": 7648,
  "\u2581ciast": 7649,
  "\u2581environnement": 7650,
  "owca": 7651,
  "\u2581forfaitaires": 7652,
  "\u2581triste": 7653,
  "\u2581efficacit\u00e9": 7654,
  "\u2581subventions": 7655,
  "\u2581wra\u017cenie": 7656,
  "yan": 7657,
  "\u2581Jedn": 7658,
  "\u2581camion": 7659,
  "\u25810,5": 7660,
  "\u2581dawce": 7661,
  "\u2581wymaga\u0144": 7662,
  "\u2581Afrique": 7663,
  "\u2581procent": 7664,
  "\u2581recherches": 7665,
  "\u2581course": 7666,
  "\u2581odleg\u0142o\u015bci": 7667,
  "iego": 7668,
  "\u2581centrales": 7669,
  "\u2581osi": 7670,
  "\u2581powod\u00f3w": 7671,
  "\u2581polu": 7672,
  "\u2581nulle": 7673,
  "\u2581ressort": 7674,
  "zob": 7675,
  "\u2581suspect": 7676,
  "ouille": 7677,
  "\u2581t\u00e9moin": 7678,
  "\u2581all": 7679,
  "\u2581indziej": 7680,
  "\u2581zatrzyma\u0107": 7681,
  "\u2581historia": 7682,
  "ements": 7683,
  "\u2581Wi\u0119kszo\u015b\u0107": 7684,
  "\u2581licence": 7685,
  "53": 7686,
  "\u0144czy": 7687,
  "\u2581capitaux": 7688,
  "\u2581bi\u00e8re": 7689,
  "\u2581sposobu": 7690,
  "stu": 7691,
  "\u2581wiejskich": 7692,
  "De": 7693,
  "\u2581(0)": 7694,
  "\u2581sprz\u0119tu": 7695,
  "\u2581win": 7696,
  "\u2581vend": 7697,
  "kh": 7698,
  "\u2581diverses": 7699,
  "\u2581second": 7700,
  "\u25812005,": 7701,
  "2002": 7702,
  "rab": 7703,
  "\u2581gospodarcze": 7704,
  "\u2581maximal": 7705,
  "100": 7706,
  "\u2581retourne": 7707,
  "\u2581rozdzia\u0142": 7708,
  "\u2581lekarz": 7709,
  "/2008": 7710,
  "\u2581mi\u0119dzynarodowej": 7711,
  "\u2581susceptible": 7712,
  "\u2581160": 7713,
  "\u2581Produkt": 7714,
  "\u2581b\u00e2timent": 7715,
  "\u2581przyzna\u0107": 7716,
  "\u2581titulaire": 7717,
  "\u2581umo\u017cliwia": 7718,
  "\u258180%": 7719,
  "\u2581cache": 7720,
  "\u2581spe\u0142niaj\u0105": 7721,
  "\u2581outils": 7722,
  "\u2581ograniczenie": 7723,
  "\u00e9chantillon": 7724,
  "\u2581paie": 7725,
  "\u2581celne": 7726,
  "\u2581vingt": 7727,
  "of": 7728,
  "CR": 7729,
  "abel": 7730,
  "interm\u00e9diaire": 7731,
  "\u2581v\u00e9t\u00e9rinaire": 7732,
  "r\u00f3d": 7733,
  "trzyma\u0142": 7734,
  "\u2581stosowne": 7735,
  "\u2581exportations": 7736,
  "\u2581auxquels": 7737,
  "kt\u00f3rzy": 7738,
  "\u2581responsabilit\u00e9s": 7739,
  "EU": 7740,
  "\u2581inn\u0105": 7741,
  "\u2581autoris\u00e9s": 7742,
  "\u2581lokalnych": 7743,
  "\u2581kompetencji": 7744,
  "\u2581mouvement": 7745,
  "CT": 7746,
  "\u2581temporaire": 7747,
  "\u2581piersi": 7748,
  "\u2581gospodarczy": 7749,
  "zdrow": 7750,
  "\u2581m\u00f3zgu": 7751,
  "\u2581bomb": 7752,
  "\u2581pe\u0142ne": 7753,
  "erze": 7754,
  "\u2581PR\u00c9SENTE": 7755,
  "\u25815:": 7756,
  "\u2581Kor": 7757,
  "\u2581SE": 7758,
  "\u2581wykorzystywane": 7759,
  "rywa": 7760,
  "tyczna": 7761,
  "\u25812-": 7762,
  "\u2581banku": 7763,
  "\u2581commerciale": 7764,
  "AS": 7765,
  "\u2581wspierania": 7766,
  "\u2581cheval": 7767,
  "\u2581wersji": 7768,
  "\u2581\u00e9trange": 7769,
  "\u2581prace": 7770,
  "rok": 7771,
  "\u2581ulubion": 7772,
  "\u2581metr\u00f3w": 7773,
  "\u0435": 7774,
  "\u2581Kr\u00f3lestwo": 7775,
  "\u2581punkty": 7776,
  "eta": 7777,
  "\u2581monnaie": 7778,
  "instant": 7779,
  "\u2581similaire": 7780,
  "\u2581session": 7781,
  "\u2581fournisseurs": 7782,
  "2004": 7783,
  "\u2581Nast\u0119pnie": 7784,
  "tons": 7785,
  "\u2581zewn\u0119trznych": 7786,
  "\u2581accepter": 7787,
  "\u2581najlepszy": 7788,
  "\u2581wcale": 7789,
  "nikiem": 7790,
  "aba": 7791,
  "\u2581ROZDZIA\u0141": 7792,
  "\u2581ostro\u017cno\u015bci": 7793,
  "\u2581Dziew": 7794,
  "lag": 7795,
  "tyki": 7796,
  "sji": 7797,
  "\u2581revenus": 7798,
  "\u2581ekspert\u00f3w": 7799,
  "\u2581dochod\u00f3w": 7800,
  "\u2581kamer": 7801,
  "\u2581k\u0142opoty": 7802,
  "\u258114,": 7803,
  "\u2581potrzeb\u0119": 7804,
  "\u2581zawieraj\u0105cych": 7805,
  "\u2581twierdzi": 7806,
  "\u2581ziemi\u0119": 7807,
  "press": 7808,
  "\u2581pory": 7809,
  "2009": 7810,
  "stra\u00dfe": 7811,
  "\u2581t\u00e9l\u00e9vision": 7812,
  "\u2581siostra": 7813,
  "\u2581Thomas": 7814,
  "\u2581krzyw": 7815,
  "\u2581int\u00e9ressant": 7816,
  "\u2581motyw": 7817,
  "\u2581Sc": 7818,
  "j\u0105cej": 7819,
  "\u2581Du\u017c": 7820,
  "\u2581uwag": 7821,
  "\u00f1": 7822,
  "\u2581directe": 7823,
  "2.": 7824,
  "ST": 7825,
  "\u2581klienta": 7826,
  "\u2581zwierz\u0119ta": 7827,
  "\u2581aktywno\u015bci": 7828,
  "\u2581Note": 7829,
  "\u2581communaut\u00e9": 7830,
  "p\u00eache": 7831,
  "\u258179": 7832,
  "\u2581zajmuje": 7833,
  "\u2581podobnych": 7834,
  "ubli": 7835,
  "\u2581existantes": 7836,
  "\u2581\u00e2g\u00e9s": 7837,
  "\u2581publi\u00e9": 7838,
  "kowych": 7839,
  "encontre": 7840,
  "\u2581pr\u00f3by": 7841,
  "\u2581misji": 7842,
  "\u2581artykule": 7843,
  "\u2581Liczba": 7844,
  "\u2581roztworu": 7845,
  "stin": 7846,
  "acyjnych": 7847,
  "\u2581voulons": 7848,
  "wi\u0105": 7849,
  "\u2581zapobiegania": 7850,
  "\u2581moindre": 7851,
  "jak": 7852,
  "ciel": 7853,
  "\u2581uwa\u017cam": 7854,
  "ping": 7855,
  "cho": 7856,
  "aj\u0105ce": 7857,
  "\u2581commerciaux": 7858,
  "\u2581\u00e9lectriques": 7859,
  "\u2581ru": 7860,
  "ipp": 7861,
  "\u2581Szybko": 7862,
  "\u2581compren": 7863,
  "omp": 7864,
  "entendre": 7865,
  "xi": 7866,
  "ju": 7867,
  "\u2581men\u00e9es": 7868,
  "isons": 7869,
  "emp": 7870,
  "\u2581inwestycje": 7871,
  "\u2581mat\u00e9riaux": 7872,
  "\u2581kl": 7873,
  "\u2581osobom": 7874,
  "lais": 7875,
  "czej": 7876,
  "\u2581dzia\u0142": 7877,
  "\u2581limiter": 7878,
  "endroit": 7879,
  "\u2581Dyrektor": 7880,
  "niejsze": 7881,
  "\u2581Najpierw": 7882,
  "\u2581szpitala": 7883,
  "\u2581zagro\u017cenie": 7884,
  "\u2581droga": 7885,
  "\u2581quotas": 7886,
  "\u2581swej": 7887,
  "\u2581125": 7888,
  "cje": 7889,
  "\u2581performances": 7890,
  "\u2581ludno\u015bci": 7891,
  "ssen": 7892,
  "\u2581sprawdza": 7893,
  "\u2581Ensuite": 7894,
  "s\u0142aw": 7895,
  "\u2581r\u00e9pondu": 7896,
  "\u2581agir": 7897,
  "\u2581s\u0142ab": 7898,
  "\u2581acc": 7899,
  "\u2581Czy\u017c": 7900,
  "Prze": 7901,
  "\u2581b\u0119d\u0105cych": 7902,
  "\u2581Pierwszy": 7903,
  "\u2581widok": 7904,
  "\u2581a\u00e9roport": 7905,
  "\u2581D\u00c9CISION": 7906,
  "\u2581godz": 7907,
  "\u2581ministre": 7908,
  "rozumie": 7909,
  "\u2581d\u00e9livrance": 7910,
  "\u2581sze\u015bciu": 7911,
  "\u2581zast\u0119puje": 7912,
  "\u2581ca\u0142kowitej": 7913,
  "IP": 7914,
  "-8": 7915,
  "PI": 7916,
  "\u2581experts": 7917,
  "fon": 7918,
  "\u2581b\u0119d\u0105ce": 7919,
  "\u20ac": 7920,
  "\u2581kolejny": 7921,
  "\u2581chcieli": 7922,
  "\u2581d\u00e9clarations": 7923,
  "\u2581global": 7924,
  "\u2581budynku": 7925,
  "emy": 7926,
  "\u25812005.": 7927,
  "\u2581zajmie": 7928,
  "\u2581\u00e9poque": 7929,
  "istor": 7930,
  "\u2581\u017badn": 7931,
  "\u2581pauvret\u00e9": 7932,
  "ray": 7933,
  "\u2581plany": 7934,
  "\u2581traite": 7935,
  "\u2581jazdy": 7936,
  "is\u00e9": 7937,
  "\u2581czeka\u0107": 7938,
  "\u2581uczucie": 7939,
  "2011": 7940,
  "\u00ae": 7941,
  "\u2581commentaires": 7942,
  "OM": 7943,
  "\u2581jasno": 7944,
  "owanym": 7945,
  "2012": 7946,
  "\u2581Groupe": 7947,
  "liny": 7948,
  ".11.": 7949,
  "\u2581wyw\u00f3z": 7950,
  "Tu": 7951,
  "\u2581satisfaire": 7952,
  "\u03bc": 7953,
  "\u00e8res": 7954,
  "\u2581ofiary": 7955,
  "\u2581otwarte": 7956,
  "\u25811990": 7957,
  "\u2581nazwy": 7958,
  "\u2581kont": 7959,
  "\u2581niewinn": 7960,
  "\u2581nucl\u00e9aire": 7961,
  "ito": 7962,
  "\u2581explique": 7963,
  "\u2581judiciaire": 7964,
  "\u2581milliers": 7965,
  "\u2581avions": 7966,
  "owan\u0105": 7967,
  "\u2581Gaz": 7968,
  "\u2581[4]": 7969,
  "\u2581signal": 7970,
  "\u2581ducha": 7971,
  "\u2581Vos": 7972,
  "\u258183": 7973,
  "rgent": 7974,
  "dent": 7975,
  "ebra\u0107": 7976,
  "\u2581incidence": 7977,
  "\u2581pewnego": 7978,
  "\u2581r\u00e9glementaires": 7979,
  "\u2581wszystkimi": 7980,
  "\u2581powoduje": 7981,
  "\u2581veille": 7982,
  "\u2581raisonnable": 7983,
  "\u2581d\u00e9cide": 7984,
  "\u2581\u017ca\u0142": 7985,
  "OD": 7986,
  "dziwi": 7987,
  "\u2581chor\u00f3b": 7988,
  "\u2581maintien": 7989,
  "\u2581oprogramowanie": 7990,
  "\u2581serre": 7991,
  "\u2581Praw": 7992,
  "\u2581\u017con\u0119": 7993,
  "\u2581zaledwie": 7994,
  "aff": 7995,
  "acide": 7996,
  "\u2581nauki": 7997,
  "\u2581Fr": 7998,
  "\u2581podobnie": 7999,
  "\u2581esp\u00e8ce": 8000,
  "\u2581Ca\u0142y": 8001,
  "ule": 8002,
  "wor": 8003,
  "\u2581options": 8004,
  "\u2581Podobnie": 8005,
  "\u2581degr\u00e9": 8006,
  "chodz\u0105": 8007,
  "lik": 8008,
  "\u2581retraite": 8009,
  "tud": 8010,
  "\u2581leczonych": 8011,
  "\u2581region\u00f3w": 8012,
  "\u2581przyj\u015b\u0107": 8013,
  "\u2581trouvent": 8014,
  "\u2581wsp\u00f3lnie": 8015,
  "lina": 8016,
  ".8.": 8017,
  "\u2581Roumanie": 8018,
  "\u2581copie": 8019,
  "\u2581Wall": 8020,
  "ENT": 8021,
  "\u2581chiffre": 8022,
  "forme": 8023,
  "\u00f3l": 8024,
  "\u2581interesie": 8025,
  "\u2581raconte": 8026,
  "\u2581urodzin": 8027,
  "\u2581club": 8028,
  "\u2581kultur": 8029,
  "\u2581restaurant": 8030,
  "\u2581strat\u00e9gique": 8031,
  "\u2581wzi\u0105\u0142": 8032,
  "\u2581billets": 8033,
  "\u2581d\u00e9p\u00f4t": 8034,
  "\u2581wyjdzie": 8035,
  "\u2581partager": 8036,
  "\u2581momentu": 8037,
  "\u2581sodium": 8038,
  "\u258181": 8039,
  "\u2581coll": 8040,
  "\u2581pochodzi": 8041,
  "ruch": 8042,
  "\u2581cacher": 8043,
  "\u2581pr\u00e9alable": 8044,
  "\u2581b\u00e9n\u00e9fices": 8045,
  "olo": 8046,
  "rzut": 8047,
  "TY": 8048,
  "\u2581bus": 8049,
  "\u2581remplir": 8050,
  "\u2581diff\u00e9rences": 8051,
  "\u2581g\u00e9ographique": 8052,
  "ady": 8053,
  "\u2581diffusion": 8054,
  "\u2581wi\u0119zienia": 8055,
  "\u2581d\u00e9finie": 8056,
  "\u2581Will": 8057,
  "\u2581requises": 8058,
  "\u0153": 8059,
  "\u2581ryzykiem": 8060,
  "\u2581szczer": 8061,
  "avance": 8062,
  "\u2581\u00e9change": 8063,
  "szki": 8064,
  "\u2581Tor": 8065,
  "\u2581potrzebujemy": 8066,
  "\u2581insuffisance": 8067,
  "owo\u015b\u0107": 8068,
  "dzy": 8069,
  "\u2581\u017cony": 8070,
  "exp": 8071,
  "\u2581av": 8072,
  "\u2581restrictions": 8073,
  "a\u00ef": 8074,
  "\u2581fleurs": 8075,
  "wari": 8076,
  "\u2581tj": 8077,
  "\u25812004,": 8078,
  "\u2581mod": 8079,
  "\u2581podstaw\u0119": 8080,
  "ione": 8081,
  "\u2581s\u00e9v\u00e8re": 8082,
  "\u2581post\u0119powaniem": 8083,
  "\u2581Bo\u017cego": 8084,
  "\u2581podejmuje": 8085,
  "\u2581ustanowienia": 8086,
  "pewni": 8087,
  "5%": 8088,
  "\u2581wielko\u015b\u0107": 8089,
  "\u2581wspiera\u0107": 8090,
  "\u2581za\u0142\u0105cznikiem": 8091,
  "alk": 8092,
  "univers": 8093,
  "\u2581apport\u00e9": 8094,
  "\u2581czynnik\u00f3w": 8095,
  "\u2581informe": 8096,
  "\u2581anciens": 8097,
  "\u2581\u00e9valuer": 8098,
  "\u2581Fer": 8099,
  "\u2581adopt\u00e9e": 8100,
  "\u2581insuline": 8101,
  "\u2581\u015bci\u015ble": 8102,
  "\u2581istotnych": 8103,
  "\u2581w\u0142asnego": 8104,
  "\u2581narz\u0119dzia": 8105,
  "\u2581wizyt": 8106,
  "\u2581retirer": 8107,
  "far": 8108,
  "\u2581violence": 8109,
  "\u2581stawia": 8110,
  "\u2581wymogami": 8111,
  "\u2581Mieli": 8112,
  "\u2581occupe": 8113,
  "TE": 8114,
  "\u2581uzasadnione": 8115,
  "\u2581Badania": 8116,
  "\u2581h\u00e9patique": 8117,
  "\u2581spotkania": 8118,
  "approbation": 8119,
  "prost": 8120,
  "ges": 8121,
  "\u2581\u00e9vidence": 8122,
  "\u2581klimat": 8123,
  "\u2581w\u0142asnym": 8124,
  "\u2581appartient": 8125,
  "jny": 8126,
  "\u2581lois": 8127,
  "\u2581Mars": 8128,
  "\u2581faisais": 8129,
  "\u2581finansowanie": 8130,
  "\u2581oto": 8131,
  "\u2581prowadzone": 8132,
  "\u2581Obecnie": 8133,
  "\u2581requis": 8134,
  "\u2581sta\u0142": 8135,
  "\u2581wiadomo": 8136,
  "\u2581czasami": 8137,
  "\u2581Shi": 8138,
  "\u2581longueur": 8139,
  "m\u00eames": 8140,
  "\u2581ostatniej": 8141,
  "\u2581sentiment": 8142,
  "\u2581n\u00e9gociation": 8143,
  "\u2581ukrywa": 8144,
  "ral": 8145,
  "\u2581lecture": 8146,
  "\u2581dobrych": 8147,
  "t\u00f3r": 8148,
  "ss\u00e9": 8149,
  "PESC": 8150,
  "\u2581wykonawczych": 8151,
  "\u2581Stara": 8152,
  "\u2581kom\u00f3rek": 8153,
  "\u2581pr\u00f3bek": 8154,
  "nne": 8155,
  "habill": 8156,
  "ext\u00e9rieur": 8157,
  "\u2581c\u00f3\u017c": 8158,
  "\u0105ce": 8159,
  "\u2581med": 8160,
  "\u2581toucher": 8161,
  "\u2581lepszego": 8162,
  "\u2581menu": 8163,
  "info": 8164,
  "\u2581faudra": 8165,
  "\u2581contacter": 8166,
  "\u2581mettent": 8167,
  "tas": 8168,
  "\u2581podstawy": 8169,
  "fl": 8170,
  "\u2581PE": 8171,
  "\u25812006.": 8172,
  "\u2581utrzyma\u0107": 8173,
  "\u2581pr\u00e9sentent": 8174,
  "tti": 8175,
  "\u2581zam\u00f3wienia": 8176,
  "pir": 8177,
  "\u2581Ess": 8178,
  "\u2581bat": 8179,
  "\u2581jedynym": 8180,
  "\u2581wspomina": 8181,
  "Jak": 8182,
  "\u2581stworzenia": 8183,
  "\u2581mogliby": 8184,
  "/10": 8185,
  "\u2581j\u0119zyka": 8186,
  "\u2581pr\u00e9sent\u00e9es": 8187,
  "\u2581pauvre": 8188,
  "zone": 8189,
  "\u2581militaire": 8190,
  "lev": 8191,
  "rzecz": 8192,
  "\u2581effectuer": 8193,
  "SZ": 8194,
  "hum": 8195,
  "\u2581Jamais": 8196,
  "\u2581ty\u0142u": 8197,
  "\u2581m\u00e9lange": 8198,
  "\u2581nacisk": 8199,
  "\u2581partenaire": 8200,
  "\u2581odpowiedniej": 8201,
  "ace": 8202,
  "\u2581communs": 8203,
  "\u2581konkretnych": 8204,
  "\u2581pra": 8205,
  "\u2581remplac\u00e9e": 8206,
  "\u2581remettre": 8207,
  "\u2581ostatnim": 8208,
  "\u2581ramener": 8209,
  "\u2581wyst\u0119puj\u0105": 8210,
  "\u2581village": 8211,
  "\u2581eau": 8212,
  "\u2581kosm": 8213,
  "zol": 8214,
  "\u03b1": 8215,
  "\u2581raport": 8216,
  "kryj": 8217,
  "\u2581mog\u0142oby": 8218,
  "\u2581dawka": 8219,
  "yli": 8220,
  "\u2581d\u00e9m": 8221,
  "\u2581pierwszych": 8222,
  "\u2581proposer": 8223,
  "\u2581r\u00e9sistance": 8224,
  "\u2581ur": 8225,
  "\u2581walczy\u0107": 8226,
  "\u2581kroki": 8227,
  "\u2581W\u0142ochy": 8228,
  "\u2581viol": 8229,
  "Sz": 8230,
  ".9.": 8231,
  "\u2581instalacji": 8232,
  "\u2581sektor": 8233,
  "cel": 8234,
  "\u2581pilote": 8235,
  "wita": 8236,
  "\u2581kosz": 8237,
  "\u2581got\u00f3w": 8238,
  "www": 8239,
  "\u2581uk": 8240,
  "\u2581leczniczego": 8241,
  "\u2581soumises": 8242,
  "\u2581abroge": 8243,
  "\u2581utiles": 8244,
  "NO": 8245,
  "\u2581Agencja": 8246,
  "\u2581beaut\u00e9": 8247,
  "\u2581r\u00e9gionales": 8248,
  "nders": 8249,
  "\u2581lutter": 8250,
  "500": 8251,
  "esp": 8252,
  "rasta": 8253,
  "\u2581pozosta\u0142o\u015bci": 8254,
  "\u2581kolejnych": 8255,
  "\u2581navigation": 8256,
  "cou": 8257,
  "\u2581remplacer": 8258,
  "\u2581instrumenty": 8259,
  "\u2581wyja\u015bni\u0107": 8260,
  "ente": 8261,
  "blok": 8262,
  "n\u0119li": 8263,
  "\u2581dzieckiem": 8264,
  "\u2581bud": 8265,
  "\u2581FA": 8266,
  "\u2581chcia\u0142by": 8267,
  "\u2581d\u00e9passe": 8268,
  "\u2581180": 8269,
  "\u2581list\u0119": 8270,
  "SP": 8271,
  "\u2581sodu": 8272,
  "\u2581restent": 8273,
  "\u2581encourager": 8274,
  "\u2581wyj\u015bcia": 8275,
  "ct": 8276,
  "\u2581Nast\u0119pny": 8277,
  "\u2581auraient": 8278,
  "\u2581WY": 8279,
  "\u2581FR": 8280,
  "\u2581pozwolenie": 8281,
  "\u2581faisons": 8282,
  "\u2581prawnej": 8283,
  "\u2581transactions": 8284,
  "cha": 8285,
  "uch": 8286,
  "GA": 8287,
  "\u00e9ch": 8288,
  "\u2581sprz\u0119t": 8289,
  "\u2581compensation": 8290,
  "\u2581grossesse": 8291,
  "\u2581poissons": 8292,
  "\u2581udzia\u0142em": 8293,
  "\u2581zapyta\u0107": 8294,
  "hor": 8295,
  "ings": 8296,
  "\u2581wskazuj\u0105": 8297,
  "encji": 8298,
  "\u2581lancer": 8299,
  "\u2581aid\u00e9": 8300,
  "\u2581dirais": 8301,
  "\u2581realizacj\u0119": 8302,
  "\u2581Reg": 8303,
  "rl": 8304,
  "\u2581souligne": 8305,
  "\u2581poly": 8306,
  "\u2581d\u0142ug": 8307,
  "\u2581nagle": 8308,
  "\u2581v\u00e9cu": 8309,
  "viv": 8310,
  "entretien": 8311,
  "tour": 8312,
  "\u2581pap": 8313,
  "assa": 8314,
  "atu": 8315,
  "\u2581Prawie": 8316,
  "ards": 8317,
  "\u2581stylu": 8318,
  "8,": 8319,
  "\u2581chiens": 8320,
  "anc\u00e9": 8321,
  "\u2581s\u00e9": 8322,
  "ANT": 8323,
  "moc": 8324,
  "\u2581przej\u015b\u0107": 8325,
  "\u2581107": 8326,
  "\u2581rel\u00e8ve": 8327,
  "\u2581\u015bwi": 8328,
  "pa\u015b\u0107": 8329,
  "\u010d": 8330,
  "via": 8331,
  "\u2581w\u0142adzy": 8332,
  "\u00eet": 8333,
  "animaux": 8334,
  "\u2581pr\u00e9parations": 8335,
  "\u2581Wsp\u00f3lnot\u0105": 8336,
  "\u2581oblicz": 8337,
  "\u2581uznane": 8338,
  "\u2581wsp\u00f3lnym": 8339,
  "\u2581opr\u00f3cz": 8340,
  "cznym": 8341,
  "\u2581Ph": 8342,
  "\u2581wiary": 8343,
  "\u2581dette": 8344,
  "ction": 8345,
  "\u2581ciekaw": 8346,
  "universit\u00e9": 8347,
  "\u2581Men": 8348,
  "ownik": 8349,
  "\u2581pourtant": 8350,
  "\u2581taxe": 8351,
  "\u2581serwer": 8352,
  "\u2581zako\u0144czeniu": 8353,
  "\u2581Tr": 8354,
  "\u2581Republika": 8355,
  "\u2581NB": 8356,
  "\u2581\u015brod": 8357,
  "aln\u0105": 8358,
  "\u2581g\u0142\u00f3wne": 8359,
  "\u2581moteurs": 8360,
  "image": 8361,
  "\u2581pierwsza": 8362,
  "\u2581lieux": 8363,
  "\u2581wk\u0142adu": 8364,
  "\u2581\u015bwiadectwa": 8365,
  "-9": 8366,
  "\u2581najlepszym": 8367,
  "\u2581szt": 8368,
  "\u2581Trop": 8369,
  "\u2581pobytu": 8370,
  "\u2581Ich": 8371,
  "\u2581livraison": 8372,
  "\u2581organami": 8373,
  "och": 8374,
  "termin": 8375,
  "\u2581programem": 8376,
  "\u2581situ\u00e9e": 8377,
  "\u2581zawarto\u015b\u0107": 8378,
  "d\u0142ugo": 8379,
  "\u2581takimi": 8380,
  "\u25814.1": 8381,
  "\u258140%": 8382,
  "acyjne": 8383,
  "\u2581r\u00e9fl\u00e9chir": 8384,
  "\u2581rz\u0105du": 8385,
  "pri": 8386,
  "\u2581stopy": 8387,
  "\u2581PKB": 8388,
  "\u2581glace": 8389,
  "\u2581Sprawozdanie": 8390,
  "\u2581sztuk": 8391,
  "cueil": 8392,
  "\u2581zespo\u0142u": 8393,
  "\u2581by\u0142aby": 8394,
  "\u2581dialogu": 8395,
  "ati": 8396,
  "wie\u015b\u0107": 8397,
  "\u2581bilan": 8398,
  "\u2581DNA": 8399,
  "\u2581Services": 8400,
  "zar": 8401,
  "\u2581pellicul\u00e9": 8402,
  "\u2581perfusion": 8403,
  "\u2581PC": 8404,
  "\u2581Croatie": 8405,
  "pes": 8406,
  "\u2581ocenia": 8407,
  "\u2581envoyer": 8408,
  "\u2581du\u017cej": 8409,
  "\u2581locale": 8410,
  "\u2581param\u00e8tres": 8411,
  "\u2581fier": 8412,
  "\u00e4": 8413,
  "ni\u0107": 8414,
  "zji": 8415,
  "\u2581wida\u0107": 8416,
  "put": 8417,
  "\u2581wiek": 8418,
  "\u2581travaill\u00e9": 8419,
  "ayant": 8420,
  "\u2581net": 8421,
  "gas": 8422,
  "\u2581formy": 8423,
  "\u2581wsp\u00f3lnotowym": 8424,
  "KI": 8425,
  "\u2581comprennent": 8426,
  "TO": 8427,
  "\u2581regionu": 8428,
  "prawi": 8429,
  "ws": 8430,
  "wany": 8431,
  "\u2581ChRL": 8432,
  "rio": 8433,
  "\u2581\u015brodkami": 8434,
  "\u2581b\u0119dziecie": 8435,
  "\u2581poisson": 8436,
  "incidence": 8437,
  "\u2581retrait": 8438,
  "\u2581nakaz": 8439,
  "\u2581odsetek": 8440,
  "\u2581Num\u00e9ro": 8441,
  "\u2581riche": 8442,
  "\u2581si\u00e8cle": 8443,
  "\u2581Nombre": 8444,
  "\u2581laboratorium": 8445,
  "\u2581tendance": 8446,
  "a\u0144skie": 8447,
  "\u2581tomb\u00e9": 8448,
  "\u2581agences": 8449,
  "\u2581otworzy\u0107": 8450,
  "\u2581oublier": 8451,
  "\u2581fortement": 8452,
  "\u2581CD": 8453,
  "\u2581prawdy": 8454,
  "\u2581exclusivement": 8455,
  "owa\u0142o": 8456,
  "kry\u0107": 8457,
  "\u017cy\u0142": 8458,
  "\u2581sign\u00e9": 8459,
  "\u2581li\u015bcie": 8460,
  "\u2581dalszych": 8461,
  "rz\u0119": 8462,
  "\u2581przedstawicieli": 8463,
  "/1": 8464,
  "\u2581praktyki": 8465,
  "\u2581po\u0142\u0105czenie": 8466,
  "\u2581zatwierdzenia": 8467,
  "esp\u00e8ce": 8468,
  "\u2581mocno": 8469,
  "\u2581polityk": 8470,
  "entreprises": 8471,
  "\u2581d\u0142ugo\u015bci": 8472,
  "\u2581pop": 8473,
  "\u2581status": 8474,
  "atrze\u0107": 8475,
  "\u2581terrible": 8476,
  "\u2581proximit\u00e9": 8477,
  "tien": 8478,
  "\u2581essentielles": 8479,
  "trzymywa": 8480,
  "\u2581Partie": 8481,
  "\u2581Ana": 8482,
  "\u2581sporo": 8483,
  "instrument": 8484,
  "ches": 8485,
  "\u2581Kir": 8486,
  "pat": 8487,
  "PR": 8488,
  "arm\u00e9e": 8489,
  "\u2581Gen": 8490,
  "\u2581Pra": 8491,
  "\u2581zegar": 8492,
  "\u2581restitutions": 8493,
  "\u2581pokrycie": 8494,
  "ats": 8495,
  "gage": 8496,
  "\u2581obecno\u015bci": 8497,
  "WPZiB": 8498,
  "\u2581pr\u00e9sent\u00e9s": 8499,
  "pok\u00f3j": 8500,
  "\u2581Samo": 8501,
  "lier": 8502,
  "grad": 8503,
  "oth": 8504,
  "\u2581wytyczne": 8505,
  "arna": 8506,
  "\u2581tir": 8507,
  "\u2581struktury": 8508,
  "\u2581anglais": 8509,
  "ball": 8510,
  "\u2581Cz\u0119\u015b\u0107": 8511,
  "\u2581ustale\u0144": 8512,
  "\u2581towary": 8513,
  "\u2581jeter": 8514,
  "\u2581CAS": 8515,
  "\u2581obowi\u0105zuj\u0105cych": 8516,
  "\u2581laboratoire": 8517,
  "czego": 8518,
  "ept": 8519,
  "\u2581post\u0119p": 8520,
  "ufa\u0107": 8521,
  "\u2581c\u00e9l\u00e8bre": 8522,
  "\u2581ekspozycji": 8523,
  "\u2581zachowanie": 8524,
  "\u2581seringue": 8525,
  "bus": 8526,
  "dane": 8527,
  "\u2581szuka\u0107": 8528,
  "\u2581\u00d7": 8529,
  "\u2581zak\u0142ada": 8530,
  "owanego": 8531,
  "\u2581Organ": 8532,
  "\u2581eff": 8533,
  "huile": 8534,
  "\u2581remercie": 8535,
  "\u2581mentionn\u00e9": 8536,
  "dzi\u0119k": 8537,
  "\u2581ppkt": 8538,
  "\u2581wi\u0119kszym": 8539,
  "\u0119dzi": 8540,
  "\u2581protoko\u0142u": 8541,
  "\u2581trafi": 8542,
  "ylo": 8543,
  "\u2581osi\u0105gni\u0119cie": 8544,
  "injection": 8545,
  "uj\u0105ca": 8546,
  "var": 8547,
  "bon": 8548,
  "\u2581ge": 8549,
  "\u2581revient": 8550,
  "identit\u00e9": 8551,
  "\u2581Donnez": 8552,
  "g\u0119": 8553,
  "\u2581Danemark": 8554,
  "\u2581essentiels": 8555,
  "\u2581d\u00fbment": 8556,
  "assi": 8557,
  "\u2581Su\u00e8de": 8558,
  "ige": 8559,
  "\u2581somme": 8560,
  "\u2581publikacji": 8561,
  "\u2581d\u00e9termin\u00e9": 8562,
  "\u2581autrement": 8563,
  "\u2581certainement": 8564,
  "\u2581alkoholu": 8565,
  "yc\u00e9e": 8566,
  "iasz": 8567,
  "lla": 8568,
  "owni": 8569,
  "\u2581indiquer": 8570,
  "\u2581remboursement": 8571,
  "\u2581110": 8572,
  "g\u0142os": 8573,
  "UN": 8574,
  "\u2581comporte": 8575,
  "\u2581obszary": 8576,
  "\u00fa": 8577,
  "\u2581czasach": 8578,
  "int\u00e9resse": 8579,
  "tive": 8580,
  "arzy": 8581,
  "\u2581chaussures": 8582,
  "\u2581element": 8583,
  "\u2581tamt": 8584,
  "\u2581systemem": 8585,
  "\u2581nauczyciel": 8586,
  "\u25813%": 8587,
  "\u2581d\u00e9termin\u00e9e": 8588,
  "attends": 8589,
  "zki": 8590,
  "\u2581mieli\u015bmy": 8591,
  "\u2581zawiera\u0107": 8592,
  "\u2581d\u00e9crit": 8593,
  "\u2581sp\u00e9ciale": 8594,
  "\u2581wyst\u0105pi\u0107": 8595,
  "cina": 8596,
  "\u2581Voyons": 8597,
  "\u2581hausse": 8598,
  "\u2581\u00b1": 8599,
  "\u2581gen": 8600,
  "\u2581obowi\u0105zki": 8601,
  "\u2581Lu": 8602,
  "\u2581trzecim": 8603,
  "\u2581spada": 8604,
  "\u2581s\u0142u\u017c\u0105ce": 8605,
  "\u2581nul": 8606,
  "\u2581u\u017cytkownika": 8607,
  "\u2581couche": 8608,
  "\u2581du\u017c\u0105": 8609,
  "\u2581pobierania": 8610,
  "\u25814.3": 8611,
  "\u2581przysz\u0142a": 8612,
  "\u2581wypraw": 8613,
  "\u2581przyjmowania": 8614,
  "\u2581Canada": 8615,
  "\u25812%": 8616,
  "\u2581profiter": 8617,
  "\u258115%": 8618,
  "\u2581Nouvelle": 8619,
  "insuline": 8620,
  "\u2581Japon": 8621,
  "\u2581drug\u0105": 8622,
  "\u2581m\u0119\u017cczyzna": 8623,
  "w\u00f3d": 8624,
  "\u2581wydanie": 8625,
  "aud": 8626,
  "\u2581pozwoli\u0142": 8627,
  "\u2581con\u00e7us": 8628,
  "\u2581PL": 8629,
  "\u2581umow\u0119": 8630,
  "\u2581fonctionner": 8631,
  "\u25813.1": 8632,
  "\u2581l\u00e9gislatives": 8633,
  "wid": 8634,
  "ula": 8635,
  "entit\u00e9": 8636,
  "\u2581partner\u00f3w": 8637,
  "\u2581celnych": 8638,
  "\u2581odbywa": 8639,
  "\u2581emplois": 8640,
  "\u2581station": 8641,
  "\u2581miar\u0119": 8642,
  "owski": 8643,
  "SS": 8644,
  "accent": 8645,
  "\u2581dach": 8646,
  "RS": 8647,
  "wspania": 8648,
  "\u2581structures": 8649,
  "\u2581Goo": 8650,
  "\u2581kontrole": 8651,
  "\u2581mog\u0142o": 8652,
  "\u2581m\u00e9dias": 8653,
  "\u2581PIB": 8654,
  "\u2581\u00e2me": 8655,
  "\u25812006,": 8656,
  "\u2581d\u00e9sir": 8657,
  "\u2581stworzenie": 8658,
  "\u2581abandonn\u00e9": 8659,
  "\u2581zwyczaj": 8660,
  "\u2581ocal": 8661,
  "\u2581ostateczna": 8662,
  "tos": 8663,
  "rma": 8664,
  "chem": 8665,
  "\u2581fu": 8666,
  "\u2581signature": 8667,
  "\u2581t\u00e9moins": 8668,
  "\u2581r\u00e9alis\u00e9es": 8669,
  "\u2581gaz\u00f3w": 8670,
  "\u2581B\u0105d\u017a": 8671,
  "\u2581Tableau": 8672,
  "\u2581d\u00e9nomm\u00e9": 8673,
  "\u2581gu": 8674,
  "\u2581solide": 8675,
  "\u2581rzadko": 8676,
  "\u2581sk\u0142adnik\u00f3w": 8677,
  "\u2581kop": 8678,
  "attraper": 8679,
[...]
